<pad> 2
</s> 2
<unk> 2
▁ 1
X 1
. 1
, 1
s 1
▁the 1
a 1
: 1
▁and 1
▁to 1
▁of 1
▁fill 1
e 1
▁in 1
t 1
- 1
▁is 1
▁de 1
▁for 1
’ 1
i 1
▁that 1
▁you 1
d 1
▁I 1
▁with 1
n 1
▁on 1
' 1
o 1
▁are 1
▁it 1
en 1
▁be 1
▁The 1
▁as 1
▁your 1
l 1
▁( 1
▁or 1
▁have 1
▁at 1
▁from 1
▁an 1
▁was 1
▁this 1
er 1
▁la 1
m 1
r 1
ing 1
▁can 1
! 1
▁will 1
▁by 1
? 1
▁not 1
re 1
) 1
▁we 1
y 1
▁und 1
▁has 1
▁all 1
▁die 1
▁but 1
▁our 1
▁their 1
▁A 1
▁more 1
▁un 1
▁der 1
c 1
u 1
in 1
▁so 1
▁they 1
▁one 1
▁about 1
▁my 1
ul 1
▁which 1
à 1
▁In 1
/ 1
he 1
f 1
▁le 1
▁out 1
▁also 1
▁des 1
▁It 1
▁up 1
▁" 1
▁time 1
ă 1
if 1
▁This 1
▁We 1
p 1
▁do 1
– 1
▁“ 1
on 1
h 1
▁si 1
le 1
▁les 1
▁în 1
▁his 1
▁who 1
▁like 1
b 1
▁when 1
; 1
▁been 1
▁other 1
ly 1
" 1
g 1
▁cu 1
▁care 1
▁what 1
▁new 1
or 1
▁some 1
▁get 1
▁were 1
▁just 1
▁there 1
▁would 1
S 1
▁them 1
▁any 1
). 1
al 1
▁into 1
▁me 1
▁had 1
▁se 1
▁make 1
at 1
▁than 1
▁du 1
▁over 1
▁You 1
▁how 1
▁no 1
▁people 1
an 1
” 1
é 1
it 1
▁If 1
k 1
▁pe 1
is 1
▁her 1
▁work 1
ve 1
▁only 1
▁may 1
▁its 1
▁first 1
▁most 1
▁well 1
▁use 1
▁zu 1
▁pour 1
z 1
il 1
▁need 1
▁these 1
▁din 1
▁den 1
▁us 1
able 1
▁S 1
▁mit 1
▁very 1
▁am 1
& 1
▁au 1
▁many 1
▁mai 1
A 1
th 1
▁through 1
▁pentru 1
▁two 1
▁von 1
▁way 1
ll 1
I 1
▁ce 1
▁și 1
▁help 1
▁best 1
), 1
un 1
▁years 1
▁2 1
▁C 1
▁nu 1
▁good 1
v 1
▁1 1
w 1
▁das 1
▁ca 1
▁where 1
▁know 1
▁year 1
▁He 1
▁see 1
▁für 1
▁auf 1
▁3 1
de 1
est 1
▁back 1
▁such 1
▁should 1
x 1
▁after 1
▁could 1
▁ist 1
▁now 1
▁much 1
and 1
... 1
▁home 1
to 1
▁ein 1
▁even 1
▁que 1
▁day 1
▁take 1
▁want 1
▁For 1
▁said 1
▁sur 1
▁une 1
▁să 1
▁dans 1
▁great 1
▁este 1
▁because 1
▁information 1
ului 1
▁find 1
C 1
▁she 1
▁im 1
ation 1
▁then 1
▁est 1
▁par 1
▁used 1
▁E 1
▁made 1
▁So 1
am 1
▁eine 1
▁şi 1
▁business 1
▁right 1
▁here 1
▁being 1
▁B 1
▁those 1
▁before 1
▁And 1
▁P 1
ers 1
▁don 1
B 1
▁life 1
▁go 1
▁As 1
▁M 1
▁each 1
▁qui 1
▁place 1
com 1
ant 1
▁sich 1
▁There 1
ar 1
▁Sie 1
▁own 1
▁part 1
ent 1
▁world 1
ment 1
▁while 1
▁But 1
▁around 1
▁L 1
us 1
▁plus 1
▁To 1
▁5 1
▁high 1
▁long 1
D 1
▁D 1
▁really 1
▁nicht 1
▁Le 1
▁service 1
▁4 1
▁different 1
▁Die 1
▁think 1
— 1
▁auch 1
▁look 1
▁both 1
lor 1
▁down 1
ten 1
▁La 1
▁off 1
▁vous 1
▁They 1
M 1
▁pas 1
▁data 1
▁T 1
▁love 1
▁every 1
▁10 1
▁last 1
▁same 1
▁using 1
▁free 1
▁dem 1
▁still 1
ate 1
ist 1
▁between 1
P 1
be 1
▁available 1
man 1
▁company 1
▁G 1
▁experience 1
▁going 1
▁site 1
j 1
are 1
▁set 1
2 1
▁system 1
▁important 1
▁few 1
▁fi 1
ich 1
▁What 1
▁services 1
▁under 1
▁When 1
▁online 1
▁New 1
▁come 1
▁provide 1
F 1
▁team 1
▁always 1
▁De 1
▁că 1
▁him 1
▁F 1
▁things 1
▁including 1
▁support 1
▁number 1
T 1
▁during 1
▁family 1
▁little 1
▁three 1
▁water 1
▁man 1
▁An 1
based 1
▁R 1
▁sau 1
▁avec 1
▁better 1
▁„ 1
▁too 1
ge 1
▁must 1
▁per 1
ele 1
▁oder 1
au 1
▁aus 1
▁werden 1
▁does 1
▁without 1
▁ou 1
▁design 1
▁va 1
▁did 1
▁O 1
▁U 1
up 1
▁end 1
▁local 1
▁next 1
▁sure 1
▁lot 1
▁Re 1
▁top 1
▁Our 1
▁small 1
▁full 1
▁something 1
ung 1
▁vor 1
E 1
▁give 1
▁might 1
▁another 1
▁6 1
▁All 1
▁process 1
L 1
▁found 1
▁sind 1
▁since 1
▁With 1
K 1
um 1
▁within 1
▁post 1
▁car 1
une 1
▁N 1
▁J 1
ic 1
R 1
ter 1
ur 1
▁She 1
▁public 1
▁keep 1
▁H 1
▁order 1
▁start 1
ez 1
▁‘ 1
uri 1
▁20 1
▁On 1
▁offer 1
▁quality 1
▁working 1
▁No 1
▁That 1
▁game 1
▁bei 1
▁today 1
▁never 1
▁week 1
▁St 1
▁feel 1
▁put 1
▁website 1
Y 1
▁days 1
▁program 1
▁looking 1
▁K 1
▁students 1
▁create 1
▁change 1
▁book 1
ity 1
▁At 1
▁possible 1
▁sunt 1
▁7 1
▁real 1
▁al 1
▁making 1
▁Be 1
▁products 1
▁case 1
▁school 1
▁say 1
area 1
▁My 1
▁point 1
▁als 1
▁children 1
▁course 1
▁show 1
▁8 1
▁These 1
▁18 1
▁large 1
co 1
▁über 1
▁second 1
▁market 1
▁fost 1
▁easy 1
▁plan 1
▁project 1
G 1
W 1
3 1
▁son 1
la 1
▁face 1
▁needs 1
ch 1
▁personal 1
me 1
▁sont 1
▁je 1
▁non 1
▁got 1
▁Do 1
the 1
▁health 1
▁special 1
." 1
1 1
den 1
▁state 1
▁open 1
▁money 1
▁again 1
▁food 1
▁page 1
▁together 1
age 1
▁qu 1
hat 1
▁ver 1
▁W 1
▁away 1
▁wird 1
▁until 1
V 1
▁pre 1
▁One 1
▁product 1
▁often 1
▁wir 1
▁nach 1
▁include 1
▁um 1
▁room 1
▁group 1
▁name 1
ce 1
H 1
N 1
▁person 1
▁social 1
▁list 1
▁How 1
▁why 1
▁community 1
▁contact 1
­ 1
▁co 1
▁play 1
▁having 1
▁power 1
▁call 1
▁against 1
▁become 1
▁cost 1
▁V 1
▁research 1
▁12 1
▁wie 1
der 1
▁thing 1
▁along 1
4 1
▁access 1
▁level 1
▁price 1
▁einen 1
▁side 1
▁Un 1
▁means 1
( 1
▁big 1
▁God 1
▁dass 1
im 1
▁30 1
▁event 1
▁development 1
▁form 1
▁read 1
▁hand 1
▁control 1
▁However 1
▁done 1
▁job 1
▁hard 1
▁war 1
▁area 1
▁add 1
▁votre 1
▁live 1
▁range 1
▁After 1
▁Les 1
▁far 1
ver 1
▁old 1
▁perfect 1
▁15 1
▁space 1
▁house 1
ine 1
▁enough 1
0 1
▁several 1
The 1
mm 1
▁University 1
▁diese 1
▁Co 1
▁comes 1
▁across 1
▁already 1
,” 1
▁body 1
▁Das 1
▁einer 1
▁left 1
▁future 1
▁times 1
▁dar 1
▁simple 1
ry 1
▁getting 1
▁try 1
ți 1
ness 1
▁makes 1
▁past 1
ca 1
▁light 1
▁Der 1
▁run 1
▁four 1
ance 1
▁ever 1
▁einem 1
▁below 1
O 1
▁9 1
▁learn 1
out 1
▁video 1
▁etc 1
▁« 1
▁zum 1
▁kann 1
▁minutes 1
▁example 1
▁nous 1
▁Se 1
▁sie 1
▁industry 1
▁problem 1
J 1
▁country 1
▁fact 1
▁type 1
ner 1
▁companies 1
▁line 1
▁city 1
▁check 1
▁doing 1
elle 1
▁fun 1
▁En 1
▁Your 1
ling 1
▁share 1
ile 1
▁actually 1
▁value 1
zi 1
▁ab 1
▁offers 1
▁less 1
▁night 1
▁Dr 1
▁started 1
▁least 1
▁short 1
▁main 1
▁single 1
▁though 1
▁prin 1
time 1
▁hours 1
▁others 1
▁called 1
▁visit 1
▁bit 1
ée 1
▁customers 1
▁music 1
▁members 1
ies 1
▁pay 1
nd 1
▁once 1
gen 1
▁können 1
▁low 1
▁durch 1
▁story 1
▁understand 1
“ 1
▁Am 1
▁didn 1
▁content 1
son 1
▁building 1
▁result 1
▁aux 1
▁complete 1
▁doesn 1
▁haben 1
▁questions 1
line 1
▁technology 1
▁Pro 1
▁current 1
▁won 1
▁let 1
▁features 1
▁please 1
5 1
▁above 1
ive 1
▁management 1
▁lui 1
her 1
▁training 1
▁everything 1
▁noch 1
▁came 1
▁web 1
▁ensure 1
▁months 1
▁art 1
▁sub 1
▁million 1
▁professional 1
▁results 1
▁kind 1
▁season 1
▁unique 1
ze 1
▁enjoy 1
▁early 1
▁major 1
▁yet 1
▁Ver 1
one 1
▁media 1
▁[ 1
▁property 1
▁beautiful 1
▁given 1
▁due 1
▁government 1
▁nur 1
▁email 1
▁total 1
▁natural 1
▁test 1
▁provides 1
▁various 1
▁American 1
▁moment 1
▁air 1
▁idea 1
▁known 1
▁Il 1
▁friends 1
▁final 1
▁buy 1
▁specific 1
▁issues 1
▁took 1
▁mind 1
▁study 1
▁addition 1
▁size 1
▁pro 1
▁film 1
▁pot 1
▁thought 1
▁tell 1
▁While 1
▁head 1
▁clients 1
▁performance 1
▁question 1
▁whether 1
▁certain 1
▁model 1
▁following 1
▁energy 1
▁office 1
▁whole 1
▁bring 1
▁required 1
ţi 1
▁date 1
_ 1
que 1
▁da 1
▁US 1
▁taking 1
go 1
▁living 1
▁someone 1
▁heart 1
▁key 1
▁areas 1
▁says 1
▁2018 1
▁month 1
▁Er 1
ste 1
▁11 1
▁front 1
▁Now 1
▁class 1
▁choose 1
pe 1
▁further 1
▁believe 1
of 1
▁among 1
sch 1
▁child 1
▁aber 1
▁Please 1
rea 1
▁later 1
▁amount 1
ice 1
▁National 1
▁style 1
▁tout 1
▁staff 1
▁white 1
▁ge 1
▁five 1
▁blog 1
▁designed 1
▁went 1
▁Da 1
▁general 1
▁rest 1
▁zur 1
▁quite 1
per 1
▁customer 1
▁close 1
▁Some 1
▁women 1
▁move 1
▁software 1
▁Ein 1
▁Ab 1
▁history 1
▁either 1
▁seen 1
▁card 1
▁City 1
▁hope 1
▁16 1
és 1
va 1
▁Al 1
▁especially 1
▁view 1
men 1
▁account 1
▁needed 1
▁United 1
] 1
▁yourself 1
▁100 1
▁receive 1
▁ideas 1
▁writing 1
▁simply 1
▁present 1
▁continue 1
▁application 1
▁build 1
▁turn 1
ated 1
▁everyone 1
cette 1
▁bien 1
less 1
▁Si 1
▁original 1
8 1
▁individual 1
tre 1
▁works 1
▁options 1
▁May 1
▁Not 1
▁report 1
mer 1
▁human 1
▁provided 1
▁By 1
▁series 1
7 1
▁modern 1
▁meet 1
▁50 1
▁25 1
▁color 1
▁download 1
▁Here 1
6 1
▁poate 1
▁În 1
▁phone 1
▁likely 1
▁table 1
▁ma 1
▁Or 1
Z 1
▁19 1
▁insurance 1
▁anything 1
▁search 1
▁Ge 1
▁issue 1
▁includes 1
▁clear 1
les 1
▁almost 1
ilor 1
▁14 1
by 1
▁Du 1
▁mais 1
ier 1
▁law 1
▁added 1
▁con 1
," 1
▁ago 1
▁His 1
▁points 1
▁mult 1
▁financial 1
▁problems 1
▁however 1
▁events 1
▁half 1
ard 1
▁ask 1
▁version 1
end 1
▁created 1
▁lead 1
▁focus 1
▁increase 1
ex 1
▁allow 1
▁extra 1
▁24 1
▁credit 1
▁production 1
zu 1
▁black 1
▁systems 1
▁17 1
▁opportunity 1
▁bis 1
▁fast 1
ring 1
▁Don 1
▁via 1
fer 1
▁comme 1
▁popular 1
▁South 1
ating 1
▁State 1
ator 1
▁common 1
con 1
▁throughout 1
▁risk 1
▁young 1
▁Je 1
▁image 1
ha 1
▁third 1
▁taken 1
▁Z 1
▁dis 1
▁From 1
▁details 1
▁games 1
▁practice 1
che 1
▁security 1
▁medical 1
▁learning 1
▁material 1
▁international 1
▁forward 1
▁paper 1
▁action 1
▁file 1
▁oil 1
▁self 1
▁private 1
▁interest 1
bar 1
▁sale 1
▁stay 1
ke 1
▁San 1
▁matter 1
▁reason 1
ted 1
▁potential 1
▁brand 1
▁field 1
▁treatment 1
▁period 1
▁York 1
▁Park 1
▁acest 1
ou 1
▁Ce 1
▁ready 1
▁rather 1
▁outside 1
▁standard 1
▁located 1
▁marketing 1
cu 1
▁Can 1
▁education 1
use 1
▁role 1
▁men 1
▁probably 1
▁store 1
▁John 1
▁rate 1
▁code 1
▁kids 1
▁currently 1
▁near 1
▁sales 1
▁usually 1
▁activities 1
▁party 1
▁leur 1
▁particular 1
▁mehr 1
ill 1
▁percent 1
▁fait 1
▁happy 1
▁inside 1
▁save 1
▁skills 1
▁consider 1
▁recent 1
▁strong 1
▁position 1
▁knowledge 1
▁tax 1
▁users 1
und 1
▁coming 1
▁article 1
min 1
▁sein 1
▁travel 1
▁changes 1
▁impact 1
▁wanted 1
▁address 1
▁soon 1
▁North 1
ată 1
▁trying 1
▁app 1
▁School 1
▁Es 1
we 1
▁conditions 1
▁digital 1
▁similar 1
▁solution 1
▁location 1
▁Of 1
▁follow 1
▁red 1
▁review 1
▁skin 1
▁pretty 1
day 1
▁dé 1
▁cause 1
▁Sa 1
▁user 1
▁Man 1
”. 1
▁Just 1
▁faire 1
▁member 1
▁iar 1
▁higher 1
▁step 1
▁wide 1
▁uns 1
▁World 1
▁additional 1
ber 1
▁easily 1
▁deal 1
▁ways 1
▁mobile 1
▁national 1
▁couple 1
▁ihre 1
▁choice 1
for 1
ous 1
▁Google 1
▁environment 1
urile 1
▁Center 1
mp 1
▁» 1
qui 1
▁growth 1
ler 1
▁improve 1
▁items 1
▁Nu 1
▁leave 1
▁true 1
▁wurde 1
▁cannot 1
▁13 1
▁running 1
▁anti 1
▁option 1
▁reading 1
▁Car 1
▁Wir 1
▁April 1
▁behind 1
▁client 1
▁cover 1
▁stop 1
ja 1
▁built 1
▁Con 1
ement 1
▁projects 1
▁variety 1
▁Ihre 1
ș 1
▁unter 1
▁longer 1
year 1
▁photo 1
▁Also 1
▁received 1
▁return 1
00 1
▁bar 1
ary 1
elor 1
▁Home 1
our 1
▁Me 1
▁held 1
▁click 1
▁ex 1
▁cum 1
▁takes 1
▁computer 1
▁told 1
+ 1
▁patients 1
ting 1
▁direct 1
▁quickly 1
tic 1
▁vom 1
▁di 1
▁kitchen 1
▁network 1
▁2015 1
▁effective 1
▁collection 1
▁2017 1
▁words 1
▁cele 1
▁student 1
▁amazing 1
eur 1
.” 1
▁ale 1
”, 1
▁purchase 1
▁mean 1
▁West 1
▁nice 1
▁age 1
▁base 1
▁summer 1
▁multi 1
▁allows 1
▁latest 1
▁global 1
▁chance 1
▁sense 1
ieren 1
▁difficult 1
ité 1
ka 1
du 1
▁providing 1
▁Art 1
▁drive 1
▁Go 1
▁très 1
U 1
▁Pre 1
▁shows 1
▁hair 1
▁success 1
▁UK 1
red 1
ü 1
ish 1
▁weeks 1
▁solutions 1
▁Pe 1
▁equipment 1
și 1
▁worked 1
". 1
▁legal 1
▁bad 1
▁40 1
▁Internet 1
▁included 1
▁upon 1
▁excellent 1
▁goal 1
▁El 1
▁Mo 1
▁policy 1
▁aussi 1
▁weight 1
ici 1
▁approach 1
▁six 1
▁entire 1
9 1
▁send 1
▁1. 1
▁wenn 1
▁photos 1
:// 1
ger 1
▁favorite 1
ley 1
▁else 1
▁types 1
▁link 1
▁recently 1
▁Mit 1
▁hot 1
tra 1
ş 1
▁according 1
▁necessary 1
▁multiple 1
▁Im 1
▁sehr 1
▁sign 1
▁anyone 1
▁land 1
▁States 1
▁unsere 1
ées 1
We 1
▁nothing 1
▁commercial 1
ful 1
▁seems 1
▁International 1
▁March 1
▁Thanks 1
▁County 1
▁books 1
▁Ca 1
▁mi 1
▁meeting 1
▁tools 1
▁cut 1
▁related 1
▁lives 1
way 1
▁develop 1
▁sound 1
▁safe 1
▁Her 1
▁average 1
▁clean 1
▁talk 1
▁peut 1
▁dann 1
▁terms 1
▁foarte 1
▁super 1
▁programs 1
▁decision 1
▁costs 1
▁être 1
▁2019 1
led 1
▁parents 1
▁Mr 1
▁lower 1
▁door 1
▁été 1
▁box 1
▁record 1
▁win 1
ster 1
▁America 1
▁immer 1
▁road 1
▁leading 1
▁section 1
▁Facebook 1
▁Most 1
iert 1
▁morning 1
▁asked 1
▁involved 1
▁hier 1
▁images 1
▁House 1
▁highly 1
▁Bar 1
▁Service 1
▁attention 1
▁normal 1
▁plans 1
▁source 1
▁Aus 1
▁benefits 1
▁ses 1
des 1
▁internet 1
▁materials 1
▁même 1
▁fine 1
▁fit 1
▁21 1
▁itself 1
▁wieder 1
▁Many 1
▁nature 1
▁pain 1
▁device 1
art 1
pro 1
▁France 1
lich 1
▁2014 1
▁inter 1
▁Li 1
▁career 1
▁looks 1
▁ré 1
▁ability 1
▁situation 1
ville 1
▁2016 1
tes 1
▁remember 1
▁TV 1
▁levels 1
▁subject 1
ally 1
▁reduce 1
▁* 1
▁Day 1
▁write 1
▁pick 1
ence 1
▁fresh 1
▁traditional 1
chi 1
▁machine 1
▁resources 1
â 1
▁countries 1
▁Even 1
▁green 1
▁Free 1
▁daily 1
▁respect 1
▁instead 1
▁Once 1
▁word 1
▁construction 1
▁huge 1
▁feature 1
▁themselves 1
▁loss 1
% 1
▁safety 1
▁economic 1
▁require 1
30 1
▁planning 1
▁mal 1
▁directly 1
ure 1
▁track 1
▁tool 1
▁positive 1
▁piece 1
▁parts 1
ang 1
▁trip 1
▁organization 1
▁sites 1
▁fire 1
▁China 1
▁Pour 1
▁plant 1
▁board 1
▁interesting 1
gar 1
▁fie 1
▁late 1
▁wall 1
▁walk 1
ham 1
▁Ne 1
▁First 1
▁double 1
▁budget 1
▁cases 1
cal 1
old 1
▁Bo 1
▁spend 1
port 1
▁worth 1
ique 1
nes 1
cul 1
era 1
▁text 1
▁decided 1
▁floor 1
▁requirements 1
▁cel 1
▁effect 1
▁gibt 1
▁news 1
▁vos 1
▁players 1
▁saw 1
▁auto 1
▁town 1
▁myself 1
▁lost 1
▁$ 1
▁June 1
▁significant 1
▁giving 1
▁stand 1
▁stock 1
▁hold 1
▁Are 1
▁shall 1
▁ideal 1
▁London 1
▁answer 1
▁Vor 1
▁gives 1
ative 1
▁timp 1
▁center 1
▁Group 1
▁sans 1
▁Ar 1
▁Ma 1
▁reach 1
ren 1
▁More 1
mit 1
▁guide 1
▁fully 1
▁Since 1
▁Inc 1
▁culture 1
eat 1
▁written 1
▁Ho 1
▁India 1
▁Well 1
back 1
▁goes 1
▁completely 1
▁tour 1
▁began 1
▁picture 1
▁mare 1
▁playing 1
▁trebuie 1
ils 1
chen 1
▁hit 1
▁complex 1
▁Thank 1
▁Let 1
▁applications 1
▁friend 1
▁English 1
▁charge 1
▁recommend 1
▁message 1
In 1
▁Mar 1
pp 1
▁method 1
▁successful 1
tion 1
▁release 1
▁creating 1
▁despre 1
esc 1
▁eye 1
▁apply 1
net 1
side 1
▁ar 1
▁platform 1
▁touch 1
▁towards 1
▁match 1
▁Black 1
▁fall 1
▁ground 1
▁High 1
▁Q 1
▁schon 1
▁hotel 1
▁prices 1
▁developed 1
uk 1
ide 1
▁September 1
ized 1
▁War 1
!! 1
▁grow 1
▁watch 1
▁storage 1
eau 1
can 1
▁Get 1
▁See 1
▁European 1
▁language 1
ează 1
▁court 1
▁Why 1
▁hear 1
▁doar 1
lan 1
▁Christmas 1
▁Web 1
vo 1
▁sent 1
▁businesses 1
▁Red 1
tel 1
▁Ha 1
▁wonderful 1
ations 1
za 1
▁22 1
▁thinking 1
▁became 1
▁cool 1
▁speed 1
mar 1
▁-- 1
▁groups 1
▁interested 1
ak 1
▁60 1
▁screen 1
▁Design 1
▁limited 1
▁expected 1
▁opportunities 1
▁regular 1
off 1
▁Best 1
Re 1
▁ihr 1
▁Great 1
▁employees 1
▁custom 1
▁multe 1
let 1
▁benefit 1
▁term 1
▁bine 1
▁deep 1
▁August 1
▁President 1
▁Auf 1
▁wish 1
▁sometimes 1
ari 1
▁pressure 1
▁ani 1
▁trade 1
▁firm 1
▁comment 1
▁November 1
▁expect 1
▁2012 1
▁Ich 1
▁relationship 1
▁active 1
org 1
▁heat 1
▁wood 1
▁notre 1
▁function 1
▁2. 1
▁wedding 1
▁starting 1
▁Health 1
", 1
▁death 1
▁pages 1
▁vehicle 1
▁request 1
▁helps 1
▁blue 1
▁analysis 1
▁posted 1
▁healthy 1
▁contract 1
▁• 1
▁Each 1
▁Fa 1
▁dintre 1
▁Friday 1
▁considered 1
cher 1
▁quick 1
▁understanding 1
▁condition 1
ization 1
▁document 1
▁prevent 1
▁growing 1
▁protection 1
▁cat 1
▁# 1
10 1
▁join 1
▁serve 1
▁blood 1
▁July 1
▁region 1
car 1
▁entre 1
▁physical 1
▁cash 1
aux 1
ng 1
▁stage 1
▁seem 1
▁definitely 1
▁investment 1
▁purpose 1
▁begin 1
® 1
▁break 1
itate 1
▁moving 1
▁met 1
ize 1
▁select 1
▁tous 1
▁Europe 1
@ 1
▁individuals 1
▁Zeit 1
gu 1
▁unit 1
▁noi 1
▁places 1
all 1
▁wait 1
▁difference 1
▁round 1
50 1
rie 1
▁Et 1
20 1
▁activity 1
е 1
▁Windows 1
▁produce 1
▁keine 1
▁Air 1
▁January 1
▁deux 1
▁entry 1
king 1
▁goals 1
▁previous 1
▁+ 1
▁Business 1
ont 1
▁Sunday 1
▁offering 1
▁response 1
▁surface 1
▁Department 1
▁exactly 1
▁Online 1
dem 1
ischen 1
▁hands 1
▁hour 1
▁dog 1
▁damage 1
▁capital 1
▁toate 1
▁wrong 1
unui 1
tri 1
▁sell 1
▁published 1
▁families 1
▁avoid 1
▁Ko 1
▁mod 1
rat 1
▁Make 1
▁October 1
▁former 1
▁Services 1
▁felt 1
▁selection 1
eaza 1
gel 1
▁Good 1
▁actual 1
▁gut 1
▁gas 1
15 1
▁structure 1
▁act 1
▁Zu 1
▁creative 1
▁Vi 1
▁shop 1
▁Lo 1
şi 1
▁mis 1
ungen 1
▁fan 1
▁| 1
▁Bei 1
▁protect 1
▁Na 1
q 1
ok 1
▁California 1
▁political 1
25 1
▁feeling 1
▁ces 1
▁display 1
▁essential 1
ând 1
▁seine 1
▁soft 1
ach 1
▁happen 1
▁Paul 1
▁Cu 1
house 1
ante 1
▁easier 1
▁sort 1
▁Post 1
▁accept 1
field 1
zen 1
▁character 1
▁beginning 1
▁Jesus 1
▁weekend 1
▁certainly 1
▁THE 1
▁alle 1
▁transport 1
▁Saturday 1
▁basic 1
▁loved 1
ros 1
▁offered 1
▁camera 1
▁Green 1
ology 1
ä 1
▁manage 1
▁paid 1
▁advice 1
▁patient 1
▁spent 1
▁mir 1
▁baby 1
ö 1
▁basis 1
▁cancer 1
▁Although 1
▁gift 1
▁3. 1
dieser 1
▁overall 1
▁Sch 1
▁Ex 1
▁December 1
▁released 1
▁prior 1
▁sowie 1
▁club 1
▁Street 1
▁College 1
▁î 1
over 1
▁gave 1
▁truly 1
par 1
▁Canada 1
▁existing 1
lie 1
▁ganz 1
▁setting 1
▁supply 1
▁college 1
▁communication 1
▁23 1
▁pass 1
▁devices 1
▁glass 1
▁experienced 1
▁grand 1
▁Po 1
▁beyond 1
▁format 1
▁mon 1
▁perform 1
sten 1
▁1, 1
▁Per 1
▁sold 1
▁rates 1
▁regarding 1
▁Paris 1
▁Dar 1
▁challenge 1
▁feet 1
▁Su 1
je 1
▁Bank 1
ven 1
jo 1
▁band 1
▁delivery 1
Vous 1
tele 1
▁East 1
▁pictures 1
▁useful 1
* 1
▁increased 1
▁stories 1
sion 1
bra 1
▁brought 1
▁effort 1
▁payment 1
▁heard 1
▁played 1
▁White 1
▁metal 1
tal 1
▁engine 1
▁Club 1
ical 1
▁effects 1
▁degree 1
▁bed 1
ette 1
▁David 1
° 1
▁Au 1
▁Company 1
▁player 1
▁Today 1
▁maintain 1
▁minute 1
mail 1
▁race 1
▁comfortable 1
▁responsible 1
vor 1
▁associated 1
▁weather 1
▁$1 1
▁tried 1
▁Check 1
▁solid 1
▁movie 1
▁coffee 1
board 1
▁po 1
▁warm 1
▁connect 1
▁Ad 1
work 1
mal 1
▁Act 1
▁achieve 1
▁Nach 1
www 1
term 1
▁claim 1
▁particularly 1
▁cas 1
▁furniture 1
▁finish 1
▁temps 1
▁disease 1
▁lots 1
▁ball 1
▁sun 1
▁strategy 1
bre 1
▁mine 1
▁Click 1
ran 1
▁Will 1
▁garden 1
▁stuff 1
▁limit 1
▁bottom 1
▁shown 1
ship 1
▁habe 1
▁Super 1
▁completed 1
▁wine 1
ische 1
▁largest 1
▁appropriate 1
▁immediately 1
▁Hi 1
▁trust 1
ability 1
▁powerful 1
▁helping 1
▁schedule 1
▁correct 1
▁transfer 1
pre 1
▁journey 1
pm 1
don 1
▁highest 1
▁finally 1
form 1
▁extremely 1
▁window 1
▁Over 1
▁remove 1
wood 1
▁2013 1
▁mother 1
▁Auto 1
▁annual 1
▁Star 1
▁Di 1
о 1
▁gold 1
tar 1
ju 1
▁Use 1
▁thanks 1
▁centre 1
▁Australia 1
▁estate 1
▁eyes 1
▁force 1
▁income 1
▁science 1
ori 1
▁enter 1
▁28 1
ire 1
▁schools 1
▁restaurant 1
▁Council 1
aus 1
▁agree 1
▁campaign 1
▁Ta 1
▁letter 1
▁central 1
▁Because 1
▁path 1
▁loc 1
▁files 1
▁population 1
▁explore 1
▁mid 1
▁concept 1
▁church 1
80 1
▁einfach 1
▁reasons 1
▁determine 1
▁February 1
▁evidence 1
▁sleep 1
▁Board 1
▁maybe 1
▁wasn 1
▁Monday 1
▁director 1
well 1
During 1
▁sweet 1
▁assist 1
▁police 1
▁repair 1
▁techniques 1
▁served 1
vi 1
▁sports 1
▁opening 1
▁ones 1
▁notice 1
▁PC 1
▁alte 1
▁Bi 1
▁cold 1
▁billion 1
▁balance 1
cer 1
▁nearly 1
▁wear 1
free 1
▁Have 1
▁comfort 1
▁studies 1
▁traffic 1
▁item 1
▁teaching 1
▁turned 1
isation 1
12 1
▁greater 1
▁knew 1
▁Association 1
▁Office 1
▁established 1
45 1
▁Love 1
▁changed 1
▁pan 1
van 1
▁Mi 1
▁tend 1
▁connection 1
▁lack 1
▁bank 1
cat 1
▁helped 1
▁spot 1
▁spring 1
▁Wi 1
▁Mac 1
▁Christ 1
▁saying 1
▁General 1
▁port 1
▁Mal 1
▁System 1
▁According 1
▁chiar 1
log 1
▁mix 1
▁Lake 1
▁intr 1
▁deliver 1
mon 1
▁Ro 1
▁Management 1
bri 1
▁pieces 1
▁announced 1
▁Yes 1
▁dark 1
val 1
▁rights 1
▁Diese 1
ki 1
vent 1
▁born 1
▁muss 1
compared 1
▁demand 1
▁handle 1
▁mode 1
lic 1
▁ahead 1
▁sharing 1
▁micro 1
▁Par 1
▁Every 1
▁bag 1
▁daca 1
▁Apple 1
▁Mark 1
▁larger 1
eze 1
▁progress 1
▁stress 1
▁cards 1
▁driving 1
▁dry 1
▁relevant 1
▁Jo 1
▁tree 1
▁reported 1
ities 1
▁tea 1
▁although 1
▁Research 1
▁pool 1
▁fin 1
▁Und 1
▁decide 1
▁expert 1
rate 1
zeit 1
▁26 1
▁Ka 1
▁fix 1
igen 1
▁direction 1
▁star 1
▁middle 1
▁Ja 1
▁Land 1
ken 1
▁button 1
▁rules 1
▁également 1
▁viel 1
▁welcome 1
că 1
▁Top 1
▁allowed 1
▁tip 1
▁cei 1
▁Nous 1
té 1
▁unei 1
▁efforts 1
▁note 1
▁title 1
ric 1
berg 1
▁ainsi 1
▁led 1
▁alone 1
ward 1
▁vie 1
▁brain 1
light 1
▁Court 1
set 1
▁steps 1
pri 1
Q 1
sti 1
▁voice 1
▁models 1
▁parties 1
▁radio 1
▁mission 1
▁methods 1
▁Te 1
air 1
▁essay 1
my 1
▁competition 1
ses 1
▁serious 1
▁Ti 1
▁Hand 1
not 1
▁winter 1
24 1
▁vision 1
▁technical 1
▁cross 1
▁update 1
▁Team 1
▁evening 1
▁experts 1
part 1
▁wo 1
▁App 1
▁peu 1
▁mich 1
▁reports 1
▁km 1
▁print 1
▁Hotel 1
▁earlier 1
▁uses 1
▁menu 1
▁miles 1
▁classes 1
▁mo 1
▁loan 1
▁host 1
▁author 1
-1 1
▁bun 1
19 1
uch 1
ble 1
▁holiday 1
los 1
▁looked 1
▁Test 1
▁moved 1
▁numbers 1
▁covered 1
ker 1
TM 1
▁album 1
▁27 1
▁când 1
▁shopping 1
▁Ihr 1
▁requires 1
▁USA 1
000 1
▁official 1
▁states 1
▁tips 1
ible 1
▁Lu 1
ces 1
▁figure 1
▁Take 1
▁după 1
▁teams 1
▁song 1
▁master 1
ED 1
▁cleaning 1
▁drop 1
▁primary 1
▁Life 1
▁carry 1
▁initial 1
▁encore 1
▁Add 1
▁woman 1
▁Water 1
▁advantage 1
see 1
ré 1
▁motor 1
mel 1
▁finding 1
▁plastic 1
▁IT 1
▁Church 1
▁shape 1
▁gets 1
▁followed 1
▁100% 1
▁Program 1
▁Another 1
▁zwei 1
▁father 1
▁rich 1
où 1
▁lines 1
▁distance 1
▁cell 1
▁parte 1
bit 1
▁perhaps 1
rii 1
▁session 1
▁Pentru 1
ING 1
ants 1
▁remain 1
13 1
▁finished 1
bel 1
▁organizations 1
▁Any 1
▁taste 1
Whether 1
ram 1
like 1
▁artist 1
aire 1
▁French 1
▁donc 1
ow 1
▁200 1
▁paint 1
▁Open 1
▁appear 1
▁Washington 1
▁target 1
pir 1
▁generally 1
▁British 1
▁seven 1
▁bio 1
▁sector 1
90 1
▁fapt 1
▁prefer 1
▁partner 1
ăm 1
▁diverse 1
▁onto 1
▁refer 1
▁Law 1
▁Ri 1
▁critical 1
▁copy 1
ck 1
ix 1
tag 1
▁Road 1
▁concern 1
▁maximum 1
▁train 1
▁într 1
ura 1
▁Qu 1
▁links 1
▁audience 1
▁foot 1
▁Blue 1
ification 1
▁developing 1
▁interior 1
= 1
▁aceasta 1
▁dedicated 1
▁movement 1
sta 1
▁challenges 1
inte 1
▁Euro 1
▁classic 1
▁Um 1
▁alternative 1
mann 1
▁Une 1
qu 1
▁heavy 1
▁install 1
▁fiind 1
▁leaders 1
▁views 1
▁www 1
▁standards 1
ong 1
40 1
▁cm 1
▁park 1
▁himself 1
▁People 1
▁separate 1
▁secure 1
sie 1
▁maintenance 1
▁encourage 1
ein 1
▁reviews 1
▁Michael 1
▁background 1
▁therefore 1
▁server 1
▁dream 1
ping 1
▁block 1
▁2009 1
▁facilities 1
▁II 1
▁attend 1
▁cap 1
35 1
▁steel 1
▁shared 1
▁doctor 1
▁River 1
▁Bay 1
▁length 1
▁jobs 1
▁Plus 1
▁station 1
▁elements 1
▁rock 1
▁professionals 1
cle 1
▁dont 1
urilor 1
▁gain 1
▁programme 1
▁Cor 1
▁leader 1
ării 1
▁> 1
▁task 1
▁seeing 1
▁statement 1
vin 1
▁fish 1
▁advanced 1
▁discuss 1
die 1
isch 1
▁plenty 1
▁Hall 1
▁Other 1
▁homes 1
▁Ni 1
▁testing 1
▁Last 1
▁Note 1
▁talking 1
▁exchange 1
▁exercise 1
▁cea 1
▁wife 1
▁Für 1
▁Texas 1
▁fr 1
▁speak 1
17 1
70 1
▁promote 1
tul 1
apos 1
▁Jahr 1
▁Trump 1
▁ohne 1
▁learned 1
▁Sp 1
▁owner 1
mor 1
▁fois 1
▁meaning 1
▁dacă 1
nic 1
а 1
14 1
▁driver 1
▁Amazon 1
▁flow 1
▁shot 1
▁sous 1
▁Gold 1
▁straight 1
▁conference 1
▁peste 1
whose 1
▁installation 1
▁produced 1
▁independent 1
▁Institute 1
▁James 1
▁mental 1
ara 1
ium 1
▁husband 1
▁guests 1
27 1
▁Che 1
▁Indian 1
zer 1
▁minimum 1
500 1
▁sit 1
put 1
▁avea 1
▁ride 1
gan 1
▁Ke 1
book 1
ages 1
▁presented 1
▁Com 1
▁Call 1
▁fee 1
ări 1
▁putea 1
▁Public 1
▁pa 1
28 1
▁Director 1
▁contains 1
▁factors 1
▁famous 1
▁bathroom 1
▁core 1
▁viele 1
▁acum 1
▁animal 1
▁Ihnen 1
▁Find 1
▁Fall 1
ford 1
▁coverage 1
▁smart 1
ries 1
▁memory 1
▁dance 1
11 1
▁communities 1
eurs 1
▁Florida 1
▁sport 1
▁bus 1
▁colors 1
▁affect 1
▁score 1
▁properties 1
18 1
▁astfel 1
▁beach 1
▁friendly 1
izing 1
▁buying 1
▁forget 1
este 1
▁capacity 1
▁lose 1
▁listed 1
ica 1
han 1
▁selbst 1
▁values 1
▁Power 1
▁comments 1
eux 1
ați 1
▁context 1
liche 1
▁keeping 1
▁2008 1
▁su 1
▁biggest 1
▁fiecare 1
ight 1
▁toute 1
▁dinner 1
bau 1
▁Mai 1
▁status 1
rez 1
▁selected 1
▁cells 1
▁eight 1
▁package 1
▁scale 1
din 1
▁Who 1
▁century 1
▁bi 1
▁Africa 1
▁http 1
▁named 1
▁adding 1
▁mention 1
▁casino 1
▁couldn 1
▁outdoor 1
▁sugar 1
▁prepared 1
21 1
▁Ba 1
vers 1
ration 1
▁ja 1
▁aspect 1
▁31 1
▁treat 1
tru 1
▁flat 1
32 1
▁reality 1
▁waste 1
▁King 1
▁drug 1
▁operations 1
▁aim 1
▁fans 1
▁vers 1
▁plants 1
▁Dis 1
▁Daten 1
être 1
▁placed 1
▁bon 1
beim 1
▁slow 1
cri 1
▁Care 1
mes 1
26 1
box 1
▁helpful 1
▁documents 1
▁visitors 1
ture 1
▁Menschen 1
▁Chi 1
▁recipe 1
▁kept 1
▁Grand 1
▁operating 1
point 1
▁bin 1
▁Tri 1
Be 1
▁experiences 1
▁academic 1
▁finden 1
▁sera 1
act 1
▁Pa 1
▁society 1
▁combination 1
5% 1
▁owners 1
▁poor 1
▁Robert 1
▁military 1
▁economy 1
▁aware 1
rot 1
mie 1
▁Thursday 1
▁2011 1
▁fantastic 1
▁numerous 1
▁fair 1
med 1
▁welche 1
▁fruit 1
ku 1
▁Social 1
▁funds 1
▁atunci 1
▁Part 1
▁Big 1
▁2010 1
▁detail 1
▁Peter 1
ani 1
▁Wie 1
▁Tu 1
ear 1
▁Wenn 1
▁manager 1
▁Dan 1
▁Pi 1
▁wants 1
▁Data 1
pos 1
▁older 1
▁Download 1
▁Was 1
▁corner 1
▁president 1
mas 1
▁smaller 1
▁bright 1
▁proper 1
▁Kinder 1
▁Two 1
▁award 1
▁premier 1
▁seek 1
▁thank 1
▁proud 1
▁workers 1
▁2000 1
▁gone 1
▁medium 1
▁grade 1
▁Ru 1
cro 1
▁interview 1
23 1
▁mari 1
▁80 1
▁Ga 1
▁90 1
▁anderen 1
▁cultural 1
but 1
rum 1
get 1
▁pop 1
▁Information 1
▁press 1
▁Project 1
▁excited 1
▁Saint 1
▁England 1
▁beauty 1
▁agreement 1
▁Like 1
▁strength 1
▁waiting 1
и 1
Le 1
▁residents 1
▁Ben 1
▁mentioned 1
▁etwas 1
▁rooms 1
▁neue 1
▁Microsoft 1
▁passed 1
▁sea 1
▁electric 1
▁forms 1
▁Central 1
▁Lord 1
ute 1
▁pré 1
▁square 1
itatea 1
▁debt 1
▁street 1
▁pi 1
▁happened 1
▁Tuesday 1
recht 1
▁Eine 1
▁Set 1
▁federal 1
CC 1
.... 1
lig 1
▁Christian 1
▁truth 1
▁map 1
▁secret 1
▁Chinese 1
hol 1
▁wrote 1
▁hospital 1
▁Island 1
▁frame 1
▁sources 1
pan 1
▁29 1
▁changing 1
▁Where 1
▁negative 1
▁processes 1
▁leadership 1
▁nos 1
▁info 1
▁Gu 1
▁CO 1
▁reference 1
▁corporate 1
▁characters 1
▁dining 1
▁becoming 1
▁4. 1
▁Science 1
▁Education 1
▁camp 1
fall 1
▁Auch 1
▁topic 1
▁influence 1
▁70 1
▁identify 1
▁(19 1
care 1
ions 1
ray 1
▁Both 1
▁collect 1
▁practices 1
▁fight 1
▁injury 1
▁nici 1
▁depuis 1
▁actions 1
▁Wednesday 1
▁bill 1
▁cheap 1
lui 1
▁awesome 1
tig 1
▁expensive 1
ceea 1
▁exact 1
22 1
▁avant 1
▁fat 1
▁spending 1
▁designs 1
▁damit 1
▁comp 1
▁whatever 1
▁Light 1
▁quarter 1
hand 1
▁connected 1
▁technologies 1
ges 1
▁shower 1
▁500 1
▁Time 1
▁zone 1
▁vote 1
▁andere 1
▁otherwise 1
tur 1
▁happens 1
hin 1
▁volume 1
▁thousands 1
war 1
▁Play 1
▁temperature 1
▁industrial 1
▁fuel 1
100 1
top 1
kin 1
▁efficient 1
teil 1
alt 1
▁monde 1
▁Ra 1
▁bedroom 1
▁showing 1
▁continued 1
▁Plan 1
▁assistance 1
▁discover 1
▁Year 1
▁applied 1
▁audio 1
▁thus 1
▁permet 1
▁fashion 1
cra 1
ious 1
▁focused 1
16 1
▁arm 1
▁Their 1
▁Foundation 1
▁majority 1
▁wind 1
▁bought 1
▁factor 1
▁opened 1
tern 1
▁cars 1
▁exciting 1
▁affordable 1
ches 1
▁panel 1
▁caused 1
▁travail 1
▁roof 1
▁enable 1
▁toward 1
▁Development 1
▁foreign 1
avi 1
long 1
De 1
▁Mon 1
▁Va 1
AP 1
▁asta 1
▁prepare 1
▁German 1
▁Centre 1
ère 1
▁fear 1
▁Este 1
▁Des 1
▁Kon 1
á 1
stand 1
▁Real 1
lichen 1
▁Beach 1
▁expertise 1
▁route 1
▁nation 1
▁snow 1
▁articles 1
▁Wood 1
▁operation 1
▁passion 1
▁cand 1
haus 1
OR 1
▁senior 1
▁becomes 1
▁sounds 1
▁enjoyed 1
▁gegen 1
▁courses 1
▁absolutely 1
tim 1
uff 1
▁moins 1
▁TO 1
▁fabric 1
poli 1
▁Bre 1
▁bo 1
▁Elle 1
bu 1
▁participants 1
stone 1
ties 1
▁listen 1
▁Spiel 1
pot 1
▁selling 1
▁geht 1
▁mini 1
▁trans 1
▁ingredients 1
auf 1
▁orice 1
▁Next 1
▁cream 1
▁edge 1
▁recommended 1
▁Form 1
▁processing 1
vert 1
▁described 1
▁installed 1
▁managed 1
▁electronic 1
▁performed 1
▁raise 1
▁imagine 1
down 1
▁fond 1
▁Inter 1
▁Mc 1
▁Dans 1
istic 1
▁miss 1
sur 1
▁Col 1
cut 1
▁dupa 1
▁Twitter 1
▁bowl 1
▁remains 1
▁Jan 1
▁smooth 1
▁fees 1
▁aid 1
▁presence 1
▁Android 1
▁decisions 1
▁names 1
▁Music 1
▁innovative 1
▁Tom 1
▁spread 1
▁lovely 1
▁daughter 1
US 1
▁facility 1
▁peace 1
▁department 1
▁weiter 1
▁Sun 1
▁fund 1
▁2018. 1
▁discussion 1
75 1
EC 1
▁lunch 1
▁videos 1
05 1
ige 1
▁parking 1
▁relationships 1
▁George 1
▁teachers 1
room 1
▁Tra 1
▁Sam 1
▁properly 1
▁Book 1
▁CA 1
▁calls 1
▁stat 1
ux 1
▁soit 1
▁Community 1
▁Jahren 1
▁increasing 1
▁civil 1
app 1
▁35 1
▁rise 1
▁dabei 1
▁studio 1
▁policies 1
▁agent 1
▁Before 1
▁Cal 1
▁2005 1
▁sample 1
▁manner 1
wing 1
stra 1
▁fel 1
▁Show 1
▁scene 1
mic 1
nom 1
▁typically 1
▁pair 1
▁detailed 1
▁Work 1
▁cities 1
▁Rock 1
▁Gar 1
▁serving 1
▁machen 1
▁trees 1
▁accident 1
▁cloud 1
▁animals 1
▁Den 1
▁Wa 1
▁suggest 1
putting 1
▁suite 1
▁clearly 1
▁net 1
▁funding 1
▁salt 1
▁Men 1
ped 1
▁Food 1
▁leaving 1
▁Government 1
ick 1
▁seat 1
▁Los 1
▁teacher 1
▁iPhone 1
▁300 1
▁commitment 1
▁aspects 1
▁previously 1
▁cent 1
▁Vo 1
▁artists 1
▁runs 1
> 1
▁Gi 1
▁mar 1
!!! 1
▁Media 1
▁feedback 1
▁resolution 1
IN 1
▁wurden 1
▁busy 1
▁adult 1
29 1
elles 1
▁closed 1
▁trouble 1
▁rent 1
lot 1
▁importance 1
▁units 1
Pro 1
▁provider 1
▁visual 1
IT 1
▁diet 1
▁appearance 1
pin 1
▁Din 1
▁eating 1
Fi 1
ball 1
är 1
ney 1
▁records 1
▁Fi 1
▁faut 1
▁CD 1
ign 1
▁vă 1
▁agency 1
ierung 1
▁Back 1
▁windows 1
▁pull 1
ash 1
▁profit 1
▁brings 1
▁Committee 1
▁girl 1
▁vehicles 1
▁Hier 1
ES 1
până 1
▁Kunden 1
pen 1
▁explain 1
▁cadru 1
▁attack 1
▁markets 1
▁claims 1
▁walking 1
▁pouv 1
low 1
▁showed 1
▁principal 1
▁lucru 1
▁precum 1
TA 1
▁partners 1
▁exist 1
▁internal 1
hen 1
▁Master 1
unless 1
▁doubt 1
$ 1
▁Long 1
▁leaves 1
allowing 1
pol 1
▁Up 1
▁Contact 1
▁practical 1
▁suit 1
▁Site 1
▁formation 1
▁signal 1
▁approximately 1
▁ourselves 1
▁colour 1
▁species 1
▁advance 1
▁PM 1
ans 1
▁locations 1
vous 1
▁updated 1
▁faith 1
mus 1
▁stores 1
heim 1
▁suitable 1
▁continues 1
▁fac 1
ever 1
▁Bill 1
▁chose 1
▁inform 1
▁environmental 1
▁responsibility 1
99 1
▁competitive 1
▁strategies 1
▁toujours 1
tive 1
▁automatically 1
▁dress 1
▁Minister 1
har 1
▁Start 1
▁= 1
▁pattern 1
tier 1
▁pays 1
▁profile 1
▁raised 1
ange 1
▁drink 1
▁element 1
▁landscape 1
▁Tag 1
▁cheese 1
ific 1
▁Stadt 1
39 1
▁launch 1
▁wouldn 1
AS 1
▁push 1
▁mill 1
▁mass 1
▁category 1
sondern 1
col 1
▁climate 1
lier 1
▁slightly 1
95 1
ace 1
▁domain 1
kan 1
▁feed 1
▁Live 1
▁Mais 1
▁après 1
▁village 1
▁hatte 1
▁joined 1
▁Museum 1
head 1
▁draw 1
▁concerns 1
ER 1
▁technique 1
▁Bio 1
▁Sea 1
▁@ 1
wer 1
▁battery 1
▁mostly 1
▁familiar 1
▁Sub 1
▁delicious 1
doch 1
60 1
▁carte 1
▁avut 1
▁premium 1
▁attempt 1
▁Über 1
▁combined 1
lement 1
▁voi 1
▁wonder 1
▁failure 1
which 1
esti 1
31 1
▁sta 1
▁transform 1
▁license 1
▁depending 1
▁specifically 1
▁OF 1
band 1
▁Sport 1
list 1
▁Tour 1
▁Israel 1
▁filled 1
▁manual 1
▁watching 1
▁rule 1
mat 1
▁notes 1
▁Oh 1
▁bereits 1
▁foundation 1
▁vital 1
▁lassen 1
▁cât 1
▁shipping 1
▁registered 1
▁jour 1
▁island 1
▁sets 1
▁football 1
▁EU 1
▁stone 1
▁Press 1
▁adapt 1
ised 1
▁thoughts 1
▁doors 1
€ 1
▁components 1
rig 1
▁generation 1
▁guess 1
cker 1
▁realize 1
▁Roman 1
▁contre 1
▁Out 1
▁IN 1
cip 1
59 1
▁enhance 1
▁battle 1
▁monitor 1
▁Martin 1
▁websites 1
▁DE 1
▁Festival 1
ân 1
▁Place 1
▁rare 1
această 1
▁sollte 1
▁Read 1
ware 1
Those 1
ende 1
▁prix 1
▁roman 1
▁creation 1
▁confidence 1
▁Japan 1
▁rain 1
▁guys 1
▁south 1
▁trading 1
▁€ 1
▁Film 1
▁pana 1
▁asemenea 1
36 1
▁instance 1
cou 1
▁nun 1
▁Pass 1
Cette 1
▁Network 1
▁prime 1
▁spiritual 1
▁tough 1
▁AND 1
▁Cat 1
▁boat 1
▁leads 1
▁Germany 1
▁valuable 1
57 1
lect 1
▁distribution 1
dar 1
▁Manager 1
cha 1
▁obtain 1
GB 1
▁unor 1
schaft 1
▁zwischen 1
▁winning 1
▁suis 1
58 1
▁Party 1
▁ceva 1
▁comprehensive 1
▁aceste 1
▁committed 1
▁Hu 1
ţ 1
▁north 1
werk 1
▁interface 1
▁Valley 1
▁anywhere 1
▁Only 1
TE 1
hui 1
bus 1
vis 1
▁Society 1
▁reliable 1
▁quelques 1
tech 1
ual 1
▁educational 1
serv 1
▁opinion 1
▁appears 1
▁count 1
irea 1
ban 1
▁45 1
▁contain 1
ost 1
▁anul 1
rien 1
gra 1
▁counter 1
-3 1
▁resource 1
▁Wo 1
▁posts 1
▁employee 1
rol 1
▁ended 1
met 1
▁meine 1
▁reached 1
gri 1
▁Bra 1
▁conduct 1
▁housing 1
▁tickets 1
▁database 1
IL 1
▁perspective 1
▁Har 1
▁error 1
▁meal 1
▁hearing 1
▁transition 1
▁browser 1
▁supported 1
▁starts 1
țe 1
▁adults 1
▁România 1
dra 1
▁worry 1
▁avoir 1
▁regional 1
▁min 1
▁Does 1
▁Keep 1
rom 1
sco 1
tem 1
▁Old 1
▁Under 1
▁Commission 1
▁Bau 1
▁News 1
▁mois 1
▁respond 1
▁alles 1
▁chair 1
▁ho 1
right 1
▁totally 1
gle 1
▁32 1
66 1
town 1
Ch 1
▁gr 1
▁garage 1
ții 1
▁Union 1
ică 1
▁2, 1
▁reflect 1
▁retail 1
▁unde 1
▁accessible 1
water 1
▁regard 1
▁logo 1
▁inspired 1
▁Wall 1
▁Ste 1
▁asking 1
▁Journal 1
▁Teil 1
▁collaboration 1
▁acid 1
▁Fund 1
▁spirit 1
despite 1
▁delivered 1
▁girls 1
▁Look 1
rant 1
▁District 1
▁rental 1
▁spune 1
els 1
▁permanent 1
▁iron 1
▁Thomas 1
EL 1
▁except 1
▁catch 1
▁providers 1
▁2006 1
▁chat 1
▁emergency 1
gre 1
site 1
▁missing 1
abil 1
▁Hill 1
urs 1
▁plusieurs 1
▁birthday 1
DS 1
ersten 1
▁5. 1
▁library 1
▁earth 1
CI 1
▁lighting 1
▁fixed 1
tori 1
▁replace 1
▁administration 1
leurs 1
▁meat 1
▁songs 1
▁confirm 1
▁rapid 1
▁Special 1
▁holding 1
▁honor 1
▁Market 1
La 1
▁measure 1
▁guarantee 1
▁switch 1
▁extensive 1
▁Neu 1
avez 1
▁protein 1
▁infrastructure 1
▁functions 1
▁cont 1
row 1
star 1
▁Port 1
Using 1
▁faster 1
44 1
▁measures 1
▁celor 1
▁exam 1
200 1
î 1
▁conversation 1
▁brands 1
▁Code 1
▁Website 1
OS 1
▁alors 1
▁organ 1
▁removed 1
▁Head 1
▁Cha 1
▁visiting 1
▁wild 1
▁seit 1
49 1
▁organic 1
aţi 1
▁kit 1
68 1
▁flowers 1
▁appreciate 1
▁dead 1
▁Fire 1
▁cela 1
▁Ph 1
▁arrive 1
▁purposes 1
▁qualité 1
▁restaurants 1
▁advertising 1
cur 1
▁ça 1
▁introduced 1
▁returned 1
▁desire 1
▁soul 1
▁Technology 1
); 1
▁Royal 1
tant 1
▁possibly 1
▁consumers 1
▁doua 1
ified 1
▁Award 1
toutes 1
▁meant 1
ezi 1
▁plu 1
ţii 1
▁talent 1
▁Security 1
arii 1
▁zi 1
▁Shop 1
▁breakfast 1
▁trial 1
ami 1
▁register 1
unserer 1
▁solar 1
▁deals 1
▁Ku 1
To 1
bat 1
MC 1
▁Global 1
у 1
▁nor 1
▁milk 1
▁choices 1
» 1
▁Sur 1
more 1
48 1
67 1
▁replacement 1
34 1
▁chocolate 1
▁Family 1
This 1
▁novel 1
▁Chicago 1
▁participate 1
▁trei 1
▁monthly 1
▁survey 1
▁End 1
▁Medical 1
autres 1
rich 1
▁bike 1
▁eventually 1
▁HD 1
bil 1
cent 1
▁afin 1
▁surgery 1
▁sin 1
▁manufacturing 1
▁consumer 1
system 1
▁object 1
▁Ju 1
ered 1
rac 1
▁clinical 1
▁dollars 1
▁chain 1
▁afternoon 1
▁ligne 1
▁accounts 1
ving 1
▁Australian 1
38 1
▁persoane 1
▁grande 1
▁Report 1
▁revenue 1
▁spre 1
▁cutting 1
▁approved 1
▁glad 1
chaque 1
win 1
▁waren 1
▁launched 1
▁layer 1
▁airport 1
▁effectively 1
▁coach 1
dé 1
LE 1
▁müssen 1
plan 1
dan 1
55 1
bringing 1
▁$2 1
nce 1
▁inspiration 1
You 1
▁soll 1
▁seemed 1
▁flight 1
▁prima 1
▁Welt 1
▁jetzt 1
ky 1
▁Western 1
▁label 1
▁möglich 1
▁input 1
▁laws 1
▁personnes 1
▁paying 1
▁Uhr 1
▁Mary 1
pur 1
▁covers 1
▁throw 1
▁Tor 1
▁bat 1
▁Gr 1
▁farm 1
▁improved 1
▁fără 1
▁theme 1
pens 1
▁Cup 1
▁settings 1
▁hire 1
▁massive 1
▁generate 1
▁earn 1
▁tab 1
For 1
gang 1
▁hin 1
▁roll 1
▁engagement 1
▁signed 1
▁League 1
▁registration 1
▁première 1
isse 1
▁university 1
ell 1
▁nou 1
rog 1
▁sitting 1
▁cazul 1
▁surrounding 1
▁Asia 1
▁bath 1
hal 1
▁plate 1
▁tests 1
▁presentation 1
▁chicken 1
▁Val 1
ably 1
▁magazine 1
▁Maybe 1
▁sauce 1
TC 1
▁exclusive 1
86 1
▁teeth 1
▁regularly 1
sed 1
gro 1
He 1
▁2017. 1
▁template 1
▁gleich 1
bal 1
▁African 1
în 1
▁rep 1
▁beat 1
▁deck 1
▁intended 1
▁para 1
▁IP 1
▁bra 1
▁forces 1
▁routine 1
▁Jahre 1
▁Bad 1
▁drivers 1
▁updates 1
▁elegant 1
▁external 1
▁engineering 1
ender 1
table 1
inter 1
▁Romania 1
▁zile 1
▁luxury 1
▁calling 1
▁cooking 1
▁component 1
wan 1
schen 1
▁birth 1
asupra 1
Co 1
▁opt 1
▁discovered 1
▁teach 1
▁Son 1
▁guest 1
▁dogs 1
▁2003 1
▁behavior 1
pé 1
63 1
▁Human 1
▁expression 1
▁nevoie 1
▁recherche 1
ging 1
related 1
▁discount 1
▁Brown 1
▁Such 1
▁Ve 1
▁height 1
clo 1
▁incredible 1
▁bas 1
▁mă 1
▁purchased 1
▁compte 1
▁instructions 1
▁Instead 1
▁output 1
▁mom 1
DR 1
89 1
▁reduced 1
98 1
▁constant 1
▁therapy 1
▁capable 1
mark 1
▁Sometimes 1
▁joy 1
▁perfectly 1
▁painting 1
avait 1
▁Sha 1
▁dat 1
▁produits 1
tric 1
ierte 1
▁Smith 1
▁trebui 1
▁beaucoup 1
▁chosen 1
▁cre 1
▁complet 1
▁Ltd 1
▁recovery 1
▁district 1
78 1
▁Unter 1
▁schnell 1
▁apart 1
▁phase 1
▁seeking 1
▁mark 1
▁pet 1
▁PDF 1
▁efficiency 1
▁buildings 1
69 1
▁sens 1
▁Video 1
▁destination 1
▁female 1
▁supporting 1
▁signs 1
▁appeal 1
76 1
▁favourite 1
ock 1
▁readers 1
▁Did 1
rou 1
PA 1
▁Jean 1
▁Em 1
pass 1
▁Zi 1
▁între 1
▁fly 1
mos 1
▁emotional 1
asse 1
▁sessions 1
▁symptoms 1
▁died 1
▁seconds 1
▁procedure 1
▁express 1
▁două 1
▁valid 1
▁euro 1
▁interests 1
Having 1
▁hundreds 1
grad 1
▁neuen 1
▁cook 1
▁pur 1
▁charges 1
sche 1
▁smile 1
▁festival 1
cho 1
▁£ 1
cht 1
▁macht 1
▁Wasser 1
▁Cap 1
▁Learn 1
▁load 1
▁aici 1
▁Ch 1
▁cycle 1
▁carried 1
▁jusqu 1
stein 1
ski 1
cap 1
▁Bal 1
▁minor 1
77 1
▁considering 1
innen 1
▁greatest 1
▁Training 1
08 1
▁significantly 1
gé 1
▁dumpster 1
▁allem 1
▁bonus 1
▁guy 1
fel 1
▁lifestyle 1
▁Bro 1
▁implement 1
lock 1
▁Earth 1
kar 1
▁invest 1
▁river 1
▁accurate 1
▁mu 1
▁celebrate 1
▁ran 1
▁bigger 1
▁Mer 1
▁millions 1
▁partie 1
▁dazu 1
▁Full 1
gie 1
bot 1
roll 1
▁Women 1
▁compare 1
▁van 1
▁apps 1
PC 1
▁drei 1
▁maison 1
▁knows 1
rid 1
62 1
class 1
▁chez 1
char 1
88 1
▁cast 1
▁examples 1
▁Therefore 1
▁topics 1
with 1
▁Anti 1
how 1
▁whom 1
▁Deutschland 1
tine 1
▁CEO 1
▁truck 1
▁Which 1
erie 1
fect 1
bou 1
▁(1 1
sum 1
▁bonne 1
▁remaining 1
▁equal 1
▁engage 1
▁RE 1
style 1
▁urma 1
▁Grund 1
ür 1
▁font 1
▁assets 1
AL 1
▁rear 1
▁contemporary 1
▁occur 1
rated 1
▁tight 1
▁machines 1
▁0. 1
▁Aber 1
sol 1
rü 1
▁2007 1
gg 1
▁unul 1
▁était 1
▁capture 1
▁command 1
▁wire 1
▁shift 1
▁bread 1
▁causes 1
PI 1
SC 1
▁lights 1
▁lived 1
mul 1
▁Cur 1
▁Richard 1
37 1
▁cup 1
▁fields 1
▁crusher 1
65 1
avons 1
▁gear 1
▁standing 1
▁thick 1
aff 1
ments 1
▁conflict 1
ität 1
▁worse 1
SE 1
imi 1
▁dating 1
Do 1
▁flexible 1
ologie 1
SU 1
▁contribute 1
▁denn 1
▁appointment 1
▁ticket 1
bed 1
▁2019. 1
▁tasks 1
▁carbon 1
▁situations 1
MA 1
▁portion 1
▁urban 1
▁Canadian 1
▁Bur 1
▁pack 1
▁effet 1
▁Ball 1
▁timpul 1
▁owned 1
▁surprise 1
▁Mu 1
▁decades 1
▁affected 1
▁proven 1
▁Fe 1
zy 1
42 1
▁trend 1
▁autres 1
No 1
▁nine 1
ON 1
NE 1
oli 1
▁Daniel 1
▁spa 1
▁messages 1
PS 1
47 1
▁doch 1
▁improvement 1
▁mountain 1
▁Room 1
▁edition 1
▁musical 1
CP 1
▁Mill 1
▁steht 1
▁determined 1
you 1
weg 1
▁Digital 1
▁filter 1
▁youth 1
▁assessment 1
▁butter 1
▁Watch 1
▁zusammen 1
▁View 1
09 1
▁sole 1
.00 1
33 1
▁export 1
ery 1
▁zurück 1
▁walls 1
▁recognize 1
law 1
▁parent 1
ST 1
▁description 1
MS 1
SM 1
▁Finally 1
▁hardware 1
ident 1
▁brown 1
▁kinds 1
▁Arts 1
▁concert 1
▁sec 1
▁represent 1
▁institutions 1
▁fur 1
▁Support 1
87 1
▁ease 1
▁feels 1
▁sheet 1
▁Though 1
▁propose 1
▁personnel 1
bie 1
▁contest 1
▁successfully 1
▁direkt 1
bietet 1
▁submit 1
▁sicher 1
▁Personal 1
94 1
61 1
▁Very 1
bol 1
▁ha 1
▁channel 1
mut 1
▁mouth 1
▁vast 1
▁Ob 1
lit 1
▁poly 1
▁trained 1
▁specialist 1
UL 1
▁seiner 1
SS 1
▁vacation 1
▁resume 1
▁constantly 1
▁treated 1
▁150 1
▁native 1
▁Russian 1
▁patterns 1
▁knowing 1
▁Pan 1
peri 1
aci 1
▁answers 1
▁heute 1
93 1
▁Winter 1
▁yes 1
SP 1
]. 1
▁kein 1
▁introduce 1
-4 1
▁shoot 1
AR 1
▁receiving 1
▁intre 1
▁appeared 1
▁brother 1
▁extend 1
▁fara 1
▁kommt 1
ali 1
▁numai 1
▁scientific 1
▁virtual 1
▁Ac 1
▁procedures 1
▁silver 1
▁leather 1
DA 1
▁executive 1
▁officials 1
▁agencies 1
▁Software 1
▁cor 1
Con 1
▁log 1
ț 1
02 1
▁7. 1
▁accepted 1
▁Berlin 1
ID 1
cot 1
▁employment 1
run 1
▁identified 1
96 1
▁déjà 1
▁cuisine 1
turi 1
▁Japanese 1
▁golf 1
▁Ki 1
▁carefully 1
▁remote 1
▁2018, 1
▁sus 1
tique 1
▁residential 1
97 1
▁Spring 1
▁Marketing 1
▁Control 1
var 1
▁historical 1
▁freedom 1
sure 1
▁broken 1
▁criminal 1
▁innovation 1
▁Italian 1
sper 1
▁cake 1
▁candidates 1
▁sizes 1
pel 1
▁frequently 1
▁planet 1
▁writer 1
1, 1
uvent 1
▁awareness 1
name 1
▁Children 1
▁relatively 1
▁pu 1
▁quiet 1
▁planned 1
▁election 1
▁6. 1
▁broad 1
▁skill 1
▁reasonable 1
▁Fort 1
▁aceea 1
▁arrived 1
▁payments 1
ack 1
▁Ort 1
▁investors 1
▁operate 1
ME 1
dic 1
▁foods 1
▁stick 1
▁agents 1
▁crowd 1
▁Students 1
▁concerned 1
test 1
▁designer 1
▁Conference 1
▁saving 1
▁recorded 1
▁proposed 1
▁ship 1
▁cred 1
▁Ci 1
RE 1
▁tradition 1
▁worldwide 1
64 1
▁television 1
▁projet 1
ency 1
▁struggle 1
▁twice 1
▁Off 1
▁begins 1
key 1
▁Table 1
▁demande 1
▁liquid 1
meter 1
▁2001 1
▁willing 1
▁medicine 1
▁expand 1
▁2004 1
▁2002 1
▁accord 1
▁Chris 1
▁prove 1
ston 1
mettre 1
▁moments 1
tik 1
such 1
2. 1
▁UN 1
▁jump 1
▁dish 1
▁Key 1
▁challenging 1
▁domestic 1
▁impressive 1
iger 1
▁Ram 1
▁doit 1
▁concrete 1
▁Unternehmen 1
▁LED 1
▁trouver 1
▁fundamental 1
▁implementation 1
85 1
▁hosting 1
▁Game 1
▁taught 1
tung 1
ront 1
▁shoes 1
79 1
▁stunning 1
▁Congress 1
▁Ent 1
▁Wer 1
▁alt 1
ör 1
▁calm 1
46 1
▁Daca 1
71 1
▁Dec 1
▁Fo 1
▁defense 1
▁expectations 1
▁Alle 1
▁brief 1
▁Hospital 1
▁sides 1
▁yellow 1
lei 1
▁speaking 1
▁crucial 1
▁Town 1
▁married 1
▁acesta 1
▁noted 1
▁Word 1
▁conducted 1
▁decor 1
kon 1
▁supplies 1
▁adventure 1
▁exhibition 1
heit 1
▁36 1
eria 1
ines 1
ological 1
quel 1
▁Van 1
-19 1
2, 1
▁Band 1
▁soil 1
▁Tim 1
▁NOT 1
▁pilot 1
▁Sh 1
Ho 1
CA 1
▁Eu 1
▁committee 1
▁Store 1
▁joint 1
▁Op 1
▁Jack 1
quality 1
▁Has 1
▁wenig 1
hood 1
▁Class 1
rus 1
▁grown 1
▁About 1
▁sum 1
▁Fair 1
SA 1
92 1
▁fourth 1
▁featured 1
▁Pen 1
▁natürlich 1
ched 1
▁ban 1
anne 1
▁theory 1
bin 1
iers 1
▁strategic 1
▁jours 1
▁communicate 1
▁pin 1
▁Bon 1
kom 1
-5 1
▁degrees 1
▁entertainment 1
ară 1
ales 1
▁pendant 1
▁Series 1
▁holds 1
▁Mini 1
▁Obama 1
▁conform 1
-10 1
▁preparation 1
▁autre 1
▁mortgage 1
▁Kan 1
▁typical 1
01 1
▁Review 1
▁laptop 1
CR 1
▁thread 1
BS 1
▁upper 1
▁searching 1
▁pen 1
▁Middle 1
73 1
▁leg 1
onic 1
IS 1
▁Kar 1
anz 1
▁circuit 1
▁Casino 1
07 1
▁petit 1
TV 1
level 1
▁Point 1
rau 1
▁cabinet 1
▁failed 1
▁stated 1
LA 1
▁privacy 1
vol 1
ativ 1
▁matters 1
▁Mor 1
▁Ur 1
view 1
▁consultation 1
TS 1
▁apartment 1
▁integrated 1
74 1
▁Through 1
▁kick 1
▁perioada 1
▁entirely 1
▁impossible 1
▁consideration 1
▁Alt 1
▁Come 1
▁outstanding 1
83 1
▁prezent 1
▁Local 1
▁Camp 1
▁bear 1
enden 1
life 1
▁Haus 1
▁William 1
“, 1
▁Instagram 1
▁solve 1
▁Ze 1
▁everyday 1
bla 1
eng 1
ough 1
84 1
?" 1
rely 1
TH 1
lang 1
82 1
▁removal 1
ală 1
▁circumstances 1
ente 1
▁lieu 1
▁2016. 1
▁ales 1
▁pure 1
▁choosing 1
▁Russia 1
amp 1
▁Santa 1
▁happening 1
▁crew 1
▁lei 1
IP 1
RO 1
▁resort 1
ened 1
MB 1
▁styles 1
▁dernier 1
uck 1
▁Guide 1
fic 1
▁fitness 1
▁healthcare 1
mol 1
▁vis 1
▁atmosphere 1
▁motion 1
▁closer 1
▁SA 1
▁default 1
▁architecture 1
iile 1
zel 1
cla 1
OP 1
▁west 1
▁Energy 1
▁positions 1
▁contrast 1
▁serves 1
cup 1
▁rose 1
pers 1
▁noise 1
mont 1
# 1
lies 1
pat 1
IC 1
arc 1
▁winner 1
tent 1
▁Preis 1
▁vin 1
blo 1
ție 1
▁OR 1
▁Buch 1
▁nearby 1
▁meetings 1
▁48 1
▁quand 1
▁usual 1
▁weitere 1
▁caught 1
▁issued 1
ști 1
upcoming 1
▁agreed 1
place 1
▁Brand 1
▁relation 1
▁atât 1
▁Tre 1
▁lors 1
▁adopt 1
▁celui 1
cken 1
▁partnership 1
?” 1
▁ba 1
▁ID 1
▁consistent 1
▁Ya 1
▁Academy 1
cial 1
1% 1
▁mise 1
▁gute 1
gli 1
▁Bu 1
▁reduction 1
acy 1
aga 1
▁Sc 1
▁Informationen 1
▁kommen 1
press 1
▁bridge 1
▁qualified 1
position 1
▁combat 1
!" 1
eva 1
oase 1
▁inner 1
▁loans 1
made 1
▁Mexico 1
▁formal 1
▁fell 1
91 1
▁campus 1
ienne 1
▁framework 1
ncing 1
▁Para 1
▁password 1
▁sei 1
▁Cross 1
▁Ten 1
bank 1
▁gun 1
ient 1
▁usage 1
▁(2 1
Gra 1
▁prea 1
▁Als 1
▁finance 1
tate 1
ition 1
▁regulations 1
▁Professional 1
▁pl 1
▁SEO 1
▁trecut 1
▁aller 1
▁violence 1
▁membership 1
▁picked 1
▁collected 1
▁extended 1
▁religious 1
▁salle 1
RA 1
▁blend 1
▁Min 1
kal 1
▁featuring 1
▁researchers 1
▁Search 1
CE 1
▁recognized 1
▁semi 1
▁exposure 1
grew 1
▁candidate 1
▁shares 1
▁edit 1
CS 1
▁Cl 1
▁Enjoy 1
▁hurt 1
▁bottle 1
▁Buy 1
▁superior 1
▁missed 1
▁workshop 1
action 1
ple 1
▁Schul 1
▁houses 1
▁2017, 1
▁killed 1
▁calendar 1
▁Mike 1
FA 1
nut 1
▁establish 1
▁alcohol 1
▁closely 1
▁MA 1
pul 1
▁defined 1
aires 1
▁Shi 1
▁plays 1
▁sister 1
▁cable 1
▁desk 1
▁apoi 1
▁identity 1
▁stars 1
▁fata 1
▁obvious 1
▁dental 1
AM 1
▁sharp 1
duc 1
▁manufacturer 1
!) 1
▁objects 1
▁Ag 1
referred 1
▁Ak 1
burg 1
▁nouveau 1
▁Pal 1
▁Arbeits 1
▁personally 1
▁Dé 1
▁import 1
▁justice 1
▁photography 1
▁portfolio 1
56 1
▁nouvelle 1
▁oven 1
▁400 1
▁mixed 1
▁relax 1
▁imp 1
▁». 1
▁mail 1
rage 1
nos 1
▁drugs 1
▁jede 1
▁einige 1
▁8. 1
ters 1
▁electrical 1
▁puis 1
▁films 1
41 1
▁moral 1
lage 1
▁spaces 1
▁Ed 1
▁classroom 1
▁große 1
▁baza 1
face 1
▁informed 1
▁improving 1
▁guidance 1
▁gallery 1
cular 1
53 1
Despite 1
▁forme 1
▁système 1
▁Win 1
▁Small 1
▁Mobile 1
▁tape 1
▁erhalten 1
▁movies 1
▁Unfortunately 1
▁Looking 1
▁guard 1
▁pr 1
▁confident 1
BA 1
bas 1
hum 1
ular 1
▁Still 1
▁flavor 1
▁boost 1
▁division 1
ising 1
▁monitoring 1
▁Sen 1
▁https 1
mainly 1
play 1
▁dynamic 1
▁coup 1
▁carpet 1
iner 1
ral 1
iser 1
RC 1
▁definition 1
▁Za 1
friendly 1
43 1
link 1
▁Multi 1
▁einmal 1
▁stopped 1
vel 1
▁ongoing 1
▁ancient 1
take 1
cia 1
▁USB 1
▁attorney 1
▁slot 1
▁Line 1
rice 1
ify 1
ó 1
▁flash 1
▁extension 1
▁Ende 1
▁powder 1
ească 1
03 1
▁normally 1
▁pun 1
viewed 1
ssen 1
ache 1
ește 1
▁PA 1
FI 1
▁Frank 1
▁apa 1
▁coast 1
▁boy 1
lim 1
▁putin 1
▁script 1
▁noticed 1
▁dealing 1
▁Trans 1
▁border 1
▁reputation 1
-2 1
HS 1
▁supports 1
▁horse 1
nik 1
▁clothes 1
▁Card 1
▁relief 1
▁Visit 1
▁luni 1
81 1
qua 1
▁Comp 1
▁investigation 1
▁depth 1
▁earned 1
▁Ren 1
▁Dumnezeu 1
▁Joe 1
▁goods 1
▁Vol 1
▁certified 1
▁favor 1
▁Scott 1
▁protest 1
▁pace 1
▁Angeles 1
inch 1
▁charged 1
code 1
▁convenient 1
▁Nord 1
▁yesterday 1
Dacă 1
▁Travel 1
▁kid 1
ction 1
▁groupe 1
pu 1
bzw 1
▁mixture 1
▁Farm 1
▁acces 1
matic 1
▁comparison 1
reich 1
pet 1
▁lit 1
▁organized 1
just 1
▁fellow 1
Ver 1
▁trends 1
▁evaluation 1
feld 1
▁Pu 1
▁equipped 1
▁catre 1
eck 1
▁facing 1
▁instrument 1
▁pleased 1
▁tap 1
dom 1
▁pump 1
▁functional 1
▁authority 1
▁experiment 1
LO 1
▁scheduled 1
halt 1
▁ceiling 1
▁Step 1
▁orders 1
▁speech 1
▁stands 1
▁disc 1
▁rec 1
▁Text 1
▁banks 1
▁oameni 1
▁communications 1
trag 1
▁trail 1
AN 1
▁Federal 1
▁quote 1
▁spus 1
▁managing 1
▁booking 1
▁Blog 1
▁tank 1
pon 1
GE 1
▁fiscal 1
▁satisfaction 1
cre 1
▁protected 1
▁enfants 1
▁dort 1
▁Mel 1
▁turns 1
▁savings 1
▁voir 1
▁Boston 1
▁debate 1
▁SO 1
▁tables 1
▁honest 1
mate 1
▁chart 1
decât 1
▁Radio 1
54 1
▁vol 1
last 1
▁tall 1
▁Should 1
▁sink 1
▁Right 1
▁male 1
▁Modern 1
▁indeed 1
▁Garden 1
▁Mod 1
▁turning 1
▁inches 1
▁Police 1
▁Pay 1
UE 1
mé 1
EE 1
▁cookies 1
rip 1
▁Motor 1
▁lung 1
▁Ap 1
▁sustainable 1
▁instant 1
▁Rose 1
▁Carolina 1
▁Help 1
IE 1
▁Jersey 1
▁Spanish 1
▁wheel 1
▁fishing 1
gram 1
▁ST 1
▁Nov 1
▁reporting 1
ked 1
▁Leben 1
▁organisation 1
▁tiny 1
▁Alex 1
▁obtained 1
▁Acest 1
▁dangerous 1
utter 1
▁rev 1
Un 1
▁revealed 1
▁decade 1
▁possibility 1
service 1
è 1
▁Chief 1
▁Durch 1
▁cadre 1
▁wearing 1
sized 1
LY 1
▁unser 1
▁2016, 1
▁fail 1
iques 1
▁Angel 1
▁transportation 1
▁dates 1
▁danger 1
▁forum 1
zug 1
▁filed 1
loc 1
éri 1
tribu 1
▁entered 1
▁porte 1
▁arts 1
▁reform 1
▁Main 1
▁dir 1
▁approval 1
▁juice 1
vier 1
▁nivel 1
▁returns 1
▁formed 1
▁combine 1
▁cours 1
▁Standard 1
▁certification 1
escu 1
▁achieved 1
▁Model 1
rul 1
▁Tage 1
▁injuries 1
▁Sal 1
▁expenses 1
▁cet 1
▁taxes 1
diesen 1
▁fairly 1
▁Access 1
wind 1
IM 1
ense 1
▁hang 1
▁citizens 1
3% 1
lum 1
▁discussed 1
AC 1
‘ 1
▁Sol 1
06 1
stellen 1
▁participation 1
▁Box 1
▁bieten 1
▁Louis 1
▁lessons 1
▁visible 1
▁Cam 1
▁Ban 1
▁Far 1
▁travers 1
▁telling 1
▁magic 1
▁Night 1
▁judge 1
▁Pat 1
▁Southern 1
OL 1
fully 1
▁acestea 1
▁Order 1
▁facut 1
▁Matt 1
registr 1
▁Yet 1
ß 1
▁făcut 1
▁versions 1
▁Force 1
rick 1
▁rund 1
ike 1
▁Young 1
▁ski 1
CU 1
▁Second 1
▁graduate 1
▁Bible 1
▁vary 1
▁celebration 1
▁risks 1
erii 1
rance 1
▁MP 1
▁tale 1
▁Ford 1
▁attached 1
▁Sy 1
▁Ly 1
stellung 1
▁trop 1
▁années 1
▁linked 1
pit 1
So 1
ţe 1
▁origin 1
▁boys 1
holder 1
read 1
▁relative 1
▁industries 1
making 1
▁tun 1
▁forced 1
▁Welcome 1
▁explained 1
MP 1
▁Three 1
aza 1
▁1999 1
▁erst 1
RS 1
▁attractive 1
▁visited 1
▁nom 1
▁drum 1
cast 1
ogen 1
▁tech 1
▁Comment 1
▁Little 1
▁suggested 1
▁gar 1
▁crack 1
▁shooting 1
▁Try 1
▁Remember 1
▁folks 1
▁MS 1
▁Dia 1
3) 1
arbeit 1
▁pepper 1
zz 1
▁extreme 1
▁extrem 1
▁severe 1
▁networks 1
păr 1
sent 1
▁structures 1
▁Join 1
▁privind 1
▁marriage 1
▁liegt 1
eben 1
▁produse 1
▁tested 1
▁Queen 1
▁Tax 1
rian 1
▁Problem 1
izat 1
udi 1
▁LA 1
▁afford 1
▁percentage 1
▁cute 1
▁gorgeous 1
▁indoor 1
▁configuration 1
▁immediate 1
▁exemple 1
▁Being 1
▁introduction 1
ella 1
bare 1
▁besser 1
▁Put 1
gon 1
▁Italy 1
▁Thus 1
tari 1
0.000 1
▁Price 1
▁Trust 1
▁contra 1
▁layout 1
▁Ireland 1
ctor 1
atoare 1
pra 1
rent 1
▁Seite 1
▁ori 1
spiel 1
▁Times 1
primarily 1
nov 1
▁desired 1
▁Would 1
PL 1
▁originally 1
▁Ana 1
EN 1
▁occasion 1
▁grant 1
igkeit 1
▁scheme 1
▁2015. 1
izare 1
gate 1
▁poker 1
pping 1
▁Wild 1
▁YouTube 1
▁assume 1
с 1
▁rapport 1
▁labor 1
teur 1
▁genre 1
▁plat 1
▁listening 1
sky 1
▁neighborhood 1
▁3- 1
▁Library 1
agit 1
▁platforms 1
bei 1
AB 1
▁manufacturers 1
▁printing 1
▁crisis 1
▁Smart 1
▁drawing 1
MO 1
▁durable 1
chant 1
▁chemical 1
▁savoir 1
▁Max 1
gestellt 1
▁rural 1
52 1
▁invited 1
▁fil 1
▁Rob 1
▁Bell 1
▁neck 1
pac 1
wal 1
▁là 1
▁Virginia 1
▁applicable 1
▁abuse 1
aide 1
▁increases 1
▁moi 1
▁Non 1
▁Produkt 1
FC 1
▁shops 1
▁prendre 1
atul 1
▁sal 1
▁société 1
▁Hot 1
rim 1
gue 1
▁enterprise 1
▁33 1
mittel 1
ged 1
▁formula 1
▁spin 1
als 1
2% 1
bon 1
▁Executive 1
▁wirklich 1
îl 1
1. 1
▁Arm 1
▁rid 1
aries 1
▁incident 1
▁copii 1
▁Charles 1
▁meals 1
▁wireless 1
Ex 1
▁Financial 1
▁AM 1
▁fest 1
▁Ol 1
oir 1
300 1
▁punct 1
▁Mad 1
▁Ali 1
lag 1
▁ocean 1
▁mirror 1
▁Additionally 1
alia 1
▁county 1
▁hip 1
dale 1
▁Stra 1
▁drag 1
▁Sand 1
▁historic 1
ière 1
▁examine 1
soci 1
ime 1
▁Insurance 1
▁crime 1
▁pare 1
▁craft 1
▁Building 1
mission 1
▁Americans 1
▁mg 1
▁passage 1
▁deposit 1
▁widely 1
nch 1
▁Coast 1
▁recipes 1
▁Ziel 1
▁duty 1
▁gerne 1
most 1
▁argument 1
▁root 1
▁consult 1
▁muscle 1
▁spoke 1
▁Cum 1
▁orange 1
▁reader 1
schw 1
▁commission 1
histoire 1
▁represents 1
▁meilleur 1
▁10. 1
HA 1
▁Systems 1
▁blind 1
▁HP 1
▁doi 1
▁signature 1
▁invite 1
▁Samsung 1
▁liber 1
▁letters 1
▁primul 1
▁losing 1
resulting 1
▁Computer 1
▁poll 1
rile 1
TI 1
▁cur 1
▁fonction 1
gat 1
AA 1
tiv 1
▁Str 1
ești 1
▁officer 1
reducing 1
▁gifts 1
▁performing 1
▁», 1
▁guitar 1
▁segment 1
▁Tar 1
▁ultimately 1
▁cam 1
▁Arbeit 1
▁accessories 1
bad 1
home 1
▁clip 1
range 1
CM 1
▁printed 1
▁Pet 1
▁attract 1
date 1
▁Senior 1
▁genau 1
num 1
▁attended 1
▁Turn 1
▁History 1
some 1
▁describe 1
▁Lee 1
▁Fre 1
▁league 1
new 1
tors 1
▁storm 1
▁Beispiel 1
▁index 1
▁awarded 1
state 1
▁1990 1
▁ends 1
kor 1
far 1
▁Page 1
▁promotion 1
▁weekly 1
400 1
iuni 1
▁Summer 1
▁thin 1
▁dafür 1
51 1
PR 1
▁Hy 1
gas 1
▁atat 1
▁mining 1
▁principles 1
gent 1
ika 1
▁religion 1
▁ordered 1
▁developers 1
▁pleasure 1
vit 1
mers 1
▁Section 1
▁por 1
▁Name 1
▁pink 1
dig 1
▁eligible 1
▁Happy 1
▁fo 1
▁availability 1
GO 1
▁Europa 1
▁Unit 1
▁1000 1
▁Berg 1
fini 1
▁$3 1
iza 1
▁promo 1
▁Low 1
abord 1
äh 1
▁Professor 1
▁array 1
▁hate 1
▁recording 1
RI 1
▁proof 1
lay 1
DE 1
▁surprised 1
▁boxes 1
▁noastre 1
zie 1
▁însă 1
▁ajuta 1
▁weil 1
▁whenever 1
shi 1
satz 1
▁remind 1
▁consist 1
▁motiv 1
▁PS 1
▁trois 1
pad 1
▁besten 1
▁Stone 1
itz 1
fit 1
▁Mountain 1
OC 1
▁depends 1
▁Cover 1
▁bags 1
▁Bel 1
▁Engineering 1
▁flower 1
▁gratuit 1
▁smartphone 1
stan 1
spect 1
SL 1
sho 1
▁Ser 1
▁Perhaps 1
▁codes 1
▁Wind 1
aient 1
▁Prin 1
▁(1) 1
▁figures 1
▁ausge 1
▁episode 1
▁Spa 1
▁Silver 1
▁Sky 1
▁capabilities 1
▁Uni 1
▁încă 1
TO 1
▁Hal 1
ghi 1
▁sofa 1
hard 1
▁FOR 1
▁Ber 1
▁firms 1
▁memories 1
▁lift 1
▁sending 1
▁narrow 1
▁Steve 1
▁integration 1
known 1
▁nostru 1
iţi 1
▁Georgia 1
▁slowly 1
iere 1
aka 1
PE 1
▁venue 1
jar 1
buch 1
rad 1
▁resistance 1
▁stehen 1
chin 1
▁weak 1
▁DVD 1
▁bodies 1
▁split 1
What 1
setzen 1
▁loves 1
▁kleine 1
▁increasingly 1
▁alert 1
▁AC 1
▁partir 1
▁ratio 1
▁keeps 1
▁Area 1
▁données 1
▁flag 1
▁NO 1
▁hotels 1
▁debut 1
▁suffer 1
▁hidden 1
▁clothing 1
▁household 1
medi 1
▁reste 1
bro 1
▁Bus 1
▁Ken 1
IR 1
▁suffering 1
▁publication 1
▁Mat 1
▁impression 1
▁founded 1
▁stable 1
▁promise 1
▁Cloud 1
▁prison 1
cor 1
▁Sports 1
▁erste 1
shire 1
▁recommendations 1
▁permit 1
▁tomorrow 1
▁lucky 1
▁realized 1
▁famille 1
▁Zealand 1
▁wooden 1
▁east 1
▁Bereich 1
während 1
rite 1
▁fla 1
platz 1
▁zero 1
▁priority 1
▁Airport 1
▁Kauf 1
▁ultimate 1
▁chest 1
▁tone 1
▁Kal 1
▁supposed 1
▁vedere 1
▁50% 1
▁Ger 1
pack 1
▁priv 1
▁Kit 1
▁tent 1
▁guidelines 1
▁Republic 1
including 1
▁chief 1
▁Living 1
keit 1
▁convert 1
tail 1
orient 1
eigenen 1
▁soup 1
▁zona 1
▁composition 1
▁Bob 1
▁exception 1
▁cr 1
▁str 1
▁Fl 1
AT 1
kel 1
▁pricing 1
▁Mass 1
vir 1
leg 1
▁rating 1
▁Sale 1
▁somewhere 1
▁submitted 1
▁Pop 1
▁papers 1
▁authorities 1
▁Person 1
▁kill 1
▁suggestions 1
-6 1
▁dust 1
taire 1
▁recognition 1
3. 1
▁Mont 1
▁produit 1
▁transmission 1
▁Th 1
▁passing 1
▁Partner 1
▁dire 1
▁DC 1
▁sky 1
▁Kitchen 1
▁fluid 1
▁scored 1
▁chapter 1
If 1
letzten 1
▁officers 1
▁avem 1
ister 1
▁involves 1
ico 1
bur 1
▁mieux 1
▁Photo 1
▁Cro 1
▁professor 1
▁besonders 1
д 1
▁alongside 1
▁stored 1
▁activ 1
▁setup 1
▁extract 1
▁accent 1
▁replaced 1
tec 1
▁Natur 1
▁Pacific 1
▁NY 1
▁Capital 1
▁forest 1
incredibly 1
▁choix 1
▁seriously 1
▁konnte 1
▁2014. 1
ensuring 1
▁handling 1
▁9. 1
▁relations 1
▁Kom 1
▁Hol 1
▁none 1
rob 1
▁Forum 1
hour 1
ème 1
▁Space 1
▁Ham 1
rap 1
▁Michigan 1
km 1
▁utilize 1
lov 1
▁luck 1
lä 1
▁healing 1
▁neu 1
aging 1
▁compliance 1
▁vertical 1
▁FREE 1
▁differences 1
▁Server 1
▁estimated 1
schutz 1
▁notamment 1
▁120 1
72 1
▁heating 1
late 1
▁younger 1
▁Intel 1
▁salad 1
▁commonly 1
▁treatments 1
▁speaker 1
▁producing 1
▁eggs 1
▁Spirit 1
▁beide 1
▁transaction 1
▁Machine 1
▁Games 1
▁niveau 1
▁Need 1
radi 1
mir 1
causing 1
▁début 1
▁rencontre 1
▁threat 1
▁enjoying 1
Com 1
▁Johnson 1
▁tournament 1
▁Micro 1
▁Drive 1
▁Cre 1
▁Lebens 1
▁categories 1
5,000 1
▁confirmed 1
pli 1
▁Francisco 1
▁raw 1
▁managers 1
ţie 1
UR 1
▁aproape 1
via 1
▁engaged 1
▁parti 1
▁posting 1
CO 1
▁bois 1
▁inch 1
vie 1
▁aside 1
▁exceptional 1
▁vintage 1
▁Him 1
▁expansion 1
▁Weg 1
▁authors 1
▁deine 1
▁Prime 1
▁scan 1
▁reg 1
ția 1
riv 1
selon 1
▁Studio 1
▁dich 1
▁vi 1
▁sequence 1
▁Four 1
RT 1
▁ihn 1
▁employ 1
umb 1
ită 1
▁Station 1
▁upload 1
▁upgrade 1
▁exterior 1
▁writers 1
▁plot 1
▁Gen 1
TER 1
-12 1
http 1
▁smell 1
post 1
von 1
mili 1
8% 1
▁Andrew 1
▁spun 1
▁grass 1
unter 1
▁burn 1
▁Gegen 1
fest 1
▁Northern 1
▁consumption 1
▁bird 1
▁Miss 1
anti 1
▁viata 1
bereich 1
▁Change 1
▁pouvoir 1
▁demonstrate 1
▁requirement 1
BI 1
ied 1
▁spray 1
▁calitate 1
▁souvent 1
▁samples 1
▁compete 1
ank 1
année 1
wick 1
iff 1
noi 1
ography 1
▁SE 1
▁250 1
▁wealth 1
4% 1
▁swimming 1
enne 1
Qu 1
▁connections 1
onne 1
▁Way 1
voll 1
▁extent 1
▁objective 1
▁clinic 1
NA 1
▁Hope 1
▁coat 1
▁depend 1
▁tine 1
acc 1
▁editor 1
▁Jim 1
600 1
▁module 1
▁deja 1
atur 1
▁maintaining 1
▁hoch 1
▁covering 1
vielen 1
hem 1
▁illegal 1
▁certificate 1
▁collective 1
▁blow 1
▁programming 1
HE 1
▁Division 1
▁ceux 1
▁saved 1
▁worst 1
▁arms 1
▁Officer 1
▁association 1
ington 1
▁belle 1
tting 1
▁attacks 1
▁vei 1
▁gerade 1
▁strain 1
▁offices 1
EM 1
EST 1
-8 1
▁faculty 1
▁Plant 1
pla 1
card 1
▁loose 1
▁PR 1
profit 1
▁channels 1
ATE 1
atic 1
wegen 1
word 1
▁sehen 1
▁nombre 1
▁DO 1
▁hoping 1
▁wollen 1
▁decat 1
IF 1
▁permission 1
▁Williams 1
▁beer 1
▁dernière 1
▁purchasing 1
▁pride 1
solv 1
ego 1
▁Oil 1
▁dishes 1
▁Baby 1
▁Roll 1
vez 1
▁drept 1
lly 1
▁potrivit 1
person 1
▁interactive 1
▁brilliant 1
▁000 1
▁giant 1
▁plain 1
▁lock 1
▁inspection 1
▁symbol 1
▁Gal 1
▁concepts 1
▁venture 1
▁Tr 1
▁Color 1
▁behalf 1
ink 1
atii 1
wie 1
▁stream 1
▁buyers 1
legen 1
iness 1
▁absolute 1
▁council 1
▁displayed 1
▁Bun 1
▁darauf 1
▁rod 1
▁repeat 1
quelle 1
lation 1
gul 1
▁compensation 1
▁string 1
▁joining 1
▁Pra 1
hab 1
▁plane 1
▁conversion 1
▁lesson 1
bound 1
▁seats 1
voc 1
▁Disney 1
esse 1
▁awards 1
▁initiative 1
UM 1
▁intelligence 1
▁laser 1
än 1
▁generated 1
▁allen 1
▁Aug 1
lini 1
▁Update 1
▁grab 1
▁Bridge 1
rock 1
hold 1
seinen 1
▁false 1
type 1
▁outcome 1
▁crazy 1
▁Platz 1
▁believed 1
▁adjust 1
▁entrance 1
▁Colorado 1
▁concentration 1
aid 1
▁regardless 1
▁mici 1
▁potentially 1
▁Custom 1
rag 1
▁employer 1
tagged 1
▁34 1
fro 1
▁Pas 1
▁AS 1
PP 1
stru 1
grâce 1
▁anyway 1
▁streets 1
▁Region 1
▁newly 1
▁assistant 1
▁requests 1
▁Ohio 1
▁continuing 1
▁îm 1
7% 1
▁basically 1
gabe 1
▁ultra 1
pic 1
▁jeder 1
▁Cook 1
▁tie 1
▁yard 1
▁wash 1
▁3, 1
▁exista 1
▁egg 1
▁marché 1
kommen 1
▁Select 1
geben 1
▁Joseph 1
▁Ces 1
▁hundred 1
even 1
gal 1
800 1
▁Jones 1
ova 1
▁careful 1
▁alarm 1
NI 1
▁residence 1
▁wäre 1
▁Dor 1
▁amounts 1
▁mistake 1
ates 1
▁bune 1
▁vegetables 1
▁Ann 1
logical 1
stadt 1
▁chances 1
%) 1
▁minimal 1
▁naturally 1
▁Geld 1
▁Yu 1
▁wrap 1
rest 1
▁legs 1
PM 1
▁Heart 1
▁suspect 1
Go 1
▁Fil 1
▁YOU 1
▁victory 1
pun 1
▁Zo 1
CT 1
▁trim 1
▁stuck 1
ators 1
▁Ideas 1
▁voyage 1
▁Restaurant 1
▁pat 1
▁bond 1
▁Del 1
▁fighting 1
▁concerning 1
▁etwa 1
▁Thema 1
▁preferred 1
▁pitch 1
▁Singapore 1
▁tub 1
FT 1
▁Product 1
▁applying 1
▁Fr 1
ţa 1
▁iPad 1
PD 1
▁comun 1
▁pie 1
rank 1
tron 1
▁pest 1
▁herself 1
▁intense 1
foot 1
▁1998 1
▁anxiety 1
▁portable 1
▁harm 1
▁admit 1
sted 1
▁regions 1
cie 1
▁robust 1
▁stem 1
▁roles 1
▁Latin 1
▁Ré 1
▁ref 1
isme 1
▁contribution 1
▁forever 1
▁frei 1
▁mont 1
that 1
▁sensitive 1
▁wider 1
AF 1
▁liability 1
ţiei 1
▁Cho 1
aria 1
rang 1
▁Account 1
▁III 1
▁tooth 1
▁factory 1
▁dropped 1
horn 1
RP 1
▁container 1
fran 1
▁lawyer 1
▁Image 1
HO 1
▁incorporate 1
▁lume 1
GA 1
itati 1
autre 1
ierten 1
[ 1
▁packages 1
▁Simon 1
▁somewhat 1
mbo 1
lite 1
▁eliminate 1
▁decrease 1
▁geben 1
▁approaches 1
▁tissue 1
▁personne 1
ional 1
unable 1
▁Case 1
hill 1
och 1
▁minister 1
▁Rad 1
▁yoga 1
▁encounter 1
text 1
▁OS 1
▁opera 1
▁loving 1
▁birds 1
▁prim 1
easca 1
park 1
fü 1
▁champion 1
▁warning 1
DC 1
▁yield 1
raum 1
▁Student 1
▁Rev 1
▁Fu 1
▁intra 1
▁proces 1
▁margin 1
lands 1
04 1
▁Steel 1
▁besoin 1
şti 1
▁39 1
▁outcomes 1
wert 1
3, 1
▁hole 1
▁Create 1
▁hall 1
nach 1
▁indicate 1
cum 1
▁Mann 1
▁reaction 1
▁empty 1
▁Sign 1
▁pm 1
erung 1
▁würde 1
▁declarat 1
6% 1
▁Client 1
vil 1
▁electricity 1
▁75 1
▁buna 1
eşte 1
▁prop 1
▁journal 1
▁meu 1
▁chef 1
▁Ever 1
▁feelings 1
PT 1
▁proposal 1
▁Its 1
▁2013. 1
▁Bundes 1
▁droit 1
▁10% 1
gard 1
information 1
FE 1
▁Dun 1
▁Stock 1
ație 1
▁mag 1
▁br 1
▁sight 1
phone 1
▁Cy 1
▁opposite 1
ically 1
großen 1
▁Without 1
espace 1
▁chairs 1
▁matches 1
ateur 1
▁Cost 1
▁WordPress 1
▁Opera 1
walked 1
▁transactions 1
▁nuclear 1
ways 1
▁Oct 1
▁bomb 1
▁tracking 1
▁photograph 1
bio 1
▁branch 1
▁$5 1
▁diagram 1
▁Hard 1
bach 1
▁42 1
logy 1
▁tile 1
▁API 1
seront 1
ENT 1
▁accommodation 1
▁fiber 1
▁Give 1
▁Gas 1
▁Spain 1
▁listing 1
▁blocks 1
▁constitu 1
▁convenience 1
▁prize 1
▁aircraft 1
containing 1
▁vice 1
▁organisations 1
▁complicated 1
rons 1
▁bars 1
était 1
▁checking 1
vant 1
▁couch 1
▁brush 1
▁printer 1
▁Rat 1
▁announce 1
▁salari 1
▁Sk 1
pal 1
▁yards 1
▁flexibility 1
▁jamais 1
UC 1
▁4, 1
▁Made 1
▁solche 1
▁tri 1
▁outfit 1
м 1
▁encouraged 1
trac 1
▁genetic 1
▁beneficial 1
mă 1
involving 1
▁knee 1
▁respective 1
▁controlled 1
▁Rück 1
LC 1
▁highlight 1
chem 1
▁Bis 1
▁graphics 1
▁posibil 1
orul 1
imagin 1
▁draft 1
shaped 1
▁suggests 1
uvre 1
page 1
▁sentiment 1
▁loop 1
▁Quality 1
▁volunteers 1
▁representation 1
▁examination 1
▁(2) 1
assi 1
▁till 1
▁Catholic 1
▁2020 1
▁random 1
tage 1
▁baking 1
▁Musik 1
▁SC 1
▁möchte 1
▁gene 1
▁kam 1
▁inspire 1
unk 1
▁Final 1
▁jeden 1
▁LLC 1
▁sistem 1
▁stages 1
▁texture 1
rib 1
lung 1
▁breath 1
▁hosted 1
▁Kingdom 1
▁politics 1
▁mood 1
cam 1
▁liked 1
▁Credit 1
tisch 1
▁everywhere 1
▁poti 1
▁fruits 1
oire 1
▁mesure 1
▁Studies 1
▁provision 1
▁Maria 1
▁necessarily 1
▁Net 1
▁scar 1
▁tracks 1
▁ads 1
termin 1
▁Yo 1
atory 1
itoare 1
▁colours 1
▁correctly 1
▁Trade 1
▁Week 1
▁Premier 1
▁designers 1
▁BE 1
▁desktop 1
▁lifetime 1
▁Kind 1
▁divers 1
rain 1
▁Von 1
▁bal 1
▁shots 1
▁accommodate 1
▁Paper 1
▁interaction 1
▁acquisition 1
▁neuro 1
▁institution 1
▁automatic 1
▁assess 1
▁manifest 1
▁audit 1
▁câte 1
▁insight 1
▁lange 1
▁retirement 1
sons 1
▁Asian 1
▁rail 1
▁Awards 1
Avec 1
SO 1
para 1
▁tant 1
▁strike 1
▁transformation 1
▁leicht 1
л 1
fat 1
▁Qui 1
▁chip 1
titude 1
▁Projekt 1
▁statt 1
▁findet 1
▁telephone 1
▁staying 1
▁Mess 1
▁patio 1
▁afla 1
▁administrative 1
▁gemeinsam 1
▁suppliers 1
ark 1
▁rice 1
▁stretch 1
▁compact 1
fire 1
в 1
vision 1
▁Mag 1
▁dreams 1
▁funny 1
▁lässt 1
cade 1
▁drama 1
▁schimb 1
PO 1
▁Sim 1
▁motivation 1
▁presents 1
▁1997 1
agi 1
▁optimal 1
▁folder 1
stro 1
▁Han 1
▁Ei 1
▁pus 1
▁Learning 1
oop 1
▁Type 1
space 1
▁define 1
▁plug 1
yard 1
▁utility 1
über 1
▁commun 1
▁directed 1
▁consent 1
▁DNA 1
▁statements 1
real 1
active 1
school 1
▁mic 1
▁acestui 1
scale 1
▁Mid 1
▁Chair 1
к 1
▁Bas 1
▁38 1
erin 1
▁Everyone 1
COM 1
▁chronic 1
▁doctors 1
▁sh 1
sport 1
▁volunteer 1
▁drinking 1
▁Mas 1
▁pursue 1
▁exposed 1
exe 1
hung 1
▁Tier 1
▁plac 1
▁proiect 1
▁literally 1
▁acolo 1
▁User 1
UT 1
▁hyper 1
▁seed 1
▁literature 1
▁Holy 1
▁jeu 1
▁licensed 1
station 1
▁criteria 1
▁sufficient 1
▁gestion 1
▁pic 1
▁64 1
▁facts 1
▁Bild 1
obi 1
▁nie 1
▁Jewish 1
bor 1
▁1980 1
▁Fach 1
craft 1
▁Pakistan 1
▁Mos 1
▁toilet 1
partea 1
case 1
▁clock 1
▁parc 1
▁legislation 1
▁icon 1
etz 1
ept 1
▁Corporation 1
▁requested 1
▁column 1
rier 1
uß 1
▁wohl 1
tell 1
gno 1
▁diseases 1
Sch 1
▁colon 1
▁Based 1
▁flu 1
▁vocal 1
▁virus 1
▁traveling 1
bul 1
т 1
city 1
AU 1
wide 1
▁solo 1
▁functionality 1
▁reveal 1
sign 1
▁closing 1
▁peak 1
▁practic 1
than 1
▁driven 1
êtes 1
high 1
power 1
▁Lin 1
▁dose 1
▁pocket 1
▁Classic 1
▁packaging 1
▁distinct 1
▁côté 1
▁breast 1
▁folosit 1
▁drinks 1
▁Dog 1
ailleurs 1
▁caz 1
▁escape 1
▁warranty 1
▁pulled 1
data 1
▁facilitate 1
É 1
▁SP 1
lant 1
AD 1
▁Print 1
mond 1
▁strange 1
▁Hor 1
▁Collection 1
arm 1
cas 1
arrow 1
▁carrying 1
▁wave 1
setzt 1
▁construct 1
▁acts 1
▁Action 1
▁Kim 1
oxid 1
fish 1
▁damaged 1
▁Greek 1
▁belt 1
▁Prior 1
▁marks 1
▁lumea 1
▁twenty 1
▁locul 1
▁Army 1
apt 1
▁limits 1
▁cruise 1
▁List 1
utilisation 1
▁personality 1
▁sections 1
▁drawn 1
▁mold 1
▁Think 1
▁holidays 1
▁critic 1
grade 1
▁sick 1
▁characteristics 1
▁echipa 1
▁Fast 1
▁Br 1
▁Reise 1
teen 1
uci 1
!” 1
ppe 1
▁talked 1
▁gap 1
homme 1
▁interact 1
▁dollar 1
▁bone 1
▁Einsatz 1
▁sad 1
any 1
tation 1
▁Haupt 1
iva 1
▁Schu 1
▁evaluate 1
▁variant 1
▁IS 1
▁PRO 1
▁vine 1
rut 1
▁existence 1
-7 1
ancy 1
▁Want 1
alism 1
ranging 1
preis 1
All 1
▁reception 1
mai 1
▁lease 1
▁finest 1
▁evident 1
▁Easy 1
▁gilt 1
▁trips 1
▁skilled 1
consists 1
front 1
rati 1
▁Following 1
▁Medicine 1
▁pune 1
▁errors 1
arian 1
lib 1
SR 1
ML 1
▁Safety 1
▁clar 1
New 1
▁37 1
▁Administration 1
▁2.0 1
▁obviously 1
▁Mitarbeiter 1
▁improvements 1
▁Cut 1
▁Natural 1
▁arrival 1
▁pizza 1
eşti 1
cept 1
▁livre 1
▁nombreux 1
▁authentic 1
▁gemacht 1
▁broadcast 1
▁stronger 1
UP 1
▁centers 1
▁petite 1
▁spots 1
▁crystal 1
▁salon 1
▁gained 1
▁Mus 1
▁lens 1
▁ihm 1
minute 1
▁greatly 1
LP 1
rait 1
▁bid 1
▁cit 1
entreprise 1
▁55 1
▁respectively 1
▁lo 1
▁cons 1
▁Energie 1
▁OK 1
▁grill 1
▁heading 1
▁sollten 1
▁Fragen 1
▁Poli 1
▁studying 1
▁développement 1
▁foam 1
▁1996 1
▁disaster 1
▁cafe 1
▁moves 1
focuses 1
▁Avenue 1
▁humans 1
▁(3 1
▁région 1
▁DJ 1
shop 1
▁acting 1
▁Justice 1
▁trouve 1
▁Estate 1
▁strict 1
▁talks 1
▁mat 1
▁completion 1
delivering 1
CD 1
0% 1
▁creativity 1
BR 1
▁occurred 1
Car 1
▁rising 1
gger 1
▁Gene 1
▁workplace 1
phy 1
▁Bla 1
▁trailer 1
▁Forest 1
▁profession 1
▁Father 1
flu 1
tone 1
▁sexual 1
▁Map 1
OT 1
▁Us 1
tôt 1
▁Wert 1
preparing 1
isé 1
▁lake 1
eed 1
jun 1
▁implemented 1
vid 1
igne 1
▁follows 1
▁Eric 1
body 1
▁contained 1
▁massage 1
AV 1
▁insa 1
▁observed 1
▁marque 1
lines 1
▁Frage 1
largely 1
gegeben 1
▁colleagues 1
pha 1
▁representative 1
▁shut 1
▁secondary 1
▁exhibit 1
1) 1
mid 1
▁Due 1
▁initiatives 1
▁occurs 1
lent 1
▁façon 1
▁iOS 1
▁exploring 1
▁stations 1
nton 1
▁Country 1
▁shouldn 1
▁casual 1
-18 1
▁maintained 1
▁cart 1
▁propre 1
▁asset 1
firm 1
gla 1
viv 1
▁scientists 1
▁Nor 1
ites 1
▁engaging 1
My 1
▁workshops 1
ffer 1
activité 1
▁tension 1
▁dual 1
uer 1
900 1
SF 1
▁kannst 1
▁bur 1
▁visitor 1
▁granted 1
▁union 1
▁tablet 1
▁Choose 1
ibil 1
▁settlement 1
genommen 1
▁marked 1
▁diagnostic 1
▁prayer 1
▁Toronto 1
trans 1
▁respectiv 1
▁2012. 1
icul 1
▁satisfied 1
▁Fla 1
▁estimate 1
▁Agency 1
OD 1
▁McC 1
bert 1
▁seal 1
aine 1
▁cauza 1
▁wallpaper 1
▁alb 1
▁Sound 1
worth 1
chten 1
programm 1
▁pounds 1
▁coaching 1
▁Furthermore 1
▁Korea 1
▁flour 1
▁sommes 1
▁Repair 1
”) 1
itch 1
blu 1
zar 1
▁diferite 1
▁Golf 1
arch 1
▁panels 1
jan 1
“. 1
izarea 1
▁golden 1
▁flying 1
▁museum 1
▁equivalent 1
▁Lang 1
schi 1
MI 1
▁faci 1
▁Rahmen 1
▁attending 1
′′ 1
▁Tro 1
▁gaming 1
▁aujourd 1
▁Wochen 1
▁entering 1
its 1
▁Private 1
▁Ocean 1
▁01 1
▁coloring 1
ător 1
▁flooring 1
▁downtown 1
rab 1
HI 1
▁illness 1
▁whil 1
▁diamond 1
Mail 1
▁Dream 1
▁Golden 1
▁rein 1
▁hi 1
▁expressed 1
▁luat 1
▁Share 1
▁Programm 1
▁Sales 1
▁prof 1
▁MO 1
▁Short 1
▁charm 1
▁Cer 1
▁Run 1
▁tutorial 1
oul 1
▁Fest 1
▁uniform 1
aß 1
▁pipe 1
▁Square 1
▁Kosten 1
▁checked 1
▁65 1
▁Adam 1
cel 1
ello 1
▁Res 1
▁drain 1
ză 1
▁Tech 1
▁strive 1
cycl 1
▁stark 1
load 1
▁Stat 1
▁Rec 1
ians 1
▁Tin 1
▁Agreement 1
▁pret 1
-9 1
▁sentence 1
▁Direct 1
▁Rep 1
▁Prozent 1
▁invitation 1
▁refund 1
▁Kids 1
stock 1
TP 1
▁tau 1
from 1
▁Ash 1
store 1
▁Common 1
▁Qualität 1
▁strongly 1
▁importante 1
ome 1
▁surtout 1
enables 1
▁decent 1
▁neutral 1
▁produs 1
bury 1
▁Level 1
▁interes 1
mov 1
▁backup 1
même 1
doc 1
▁#1 1
▁specified 1
▁founder 1
And 1
isten 1
▁lecture 1
▁wake 1
▁vraiment 1
▁swing 1
▁addresses 1
▁Verfügung 1
▁deadline 1
н 1
▁Content 1
▁Gre 1
▁Experience 1
tura 1
▁exit 1
▁Britain 1
▁Sunt 1
▁documentation 1
▁showcase 1
▁photographs 1
qué 1
zin 1
pres 1
▁decline 1
▁Large 1
▁bills 1
▁entitled 1
▁passionate 1
▁workout 1
▁Again 1
▁Haut 1
▁guaranteed 1
▁vue 1
▁farmers 1
▁admission 1
▁manière 1
▁reverse 1
▁FL 1
▁terminal 1
GI 1
▁speakers 1
▁responses 1
▁Doch 1
▁2013, 1
▁phones 1
ential 1
▁operator 1
▁steam 1
burn 1
▁seul 1
▁unusual 1
▁educate 1
▁Que 1
▁believes 1
▁succeed 1
▁delay 1
▁deeper 1
▁reaching 1
▁objectives 1
▁temporary 1
▁artistic 1
▁sou 1
▁transparent 1
There 1
ception 1
▁excess 1
▁gathering 1
▁Save 1
ază 1
▁français 1
▁laid 1
▁modul 1
avoir 1
under 1
dding 1
▁falls 1
▁Möglichkeit 1
▁ceremony 1
rai 1
▁Bor 1
▁Below 1
4) 1
▁Field 1
wear 1
motion 1
print 1
game 1
▁Irish 1
▁Las 1
Among 1
atori 1
▁ajuns 1
▁alive 1
▁retour 1
▁smoke 1
▁math 1
▁Ye 1
▁Denn 1
▁1995 1
▁bani 1
raz 1
world 1
▁engines 1
nehmen 1
stor 1
▁interpret 1
▁Ven 1
▁cotton 1
▁represented 1
▁fabulous 1
▁gender 1
Mar 1
vic 1
▁newsletter 1
sburg 1
pond 1
▁Carl 1
▁bunch 1
▁tower 1
▁trigger 1
▁explanation 1
Man 1
iunea 1
▁announcement 1
▁seeds 1
▁shell 1
▁Working 1
viz 1
▁Simply 1
sub 1
▁Village 1
▁falling 1
▁fits 1
▁wichtig 1
▁Down 1
bble 1
▁Orange 1
promoting 1
▁rapidly 1
▁translation 1
nig 1
fusion 1
kosten 1
2) 1
▁Express 1
▁Sw 1
▁frequency 1
▁diversity 1
MT 1
▁bekannt 1
lion 1
▁cop 1
▁Customer 1
▁demands 1
▁corn 1
▁Hamburg 1
SD 1
▁Rome 1
▁Pur 1
▁stamp 1
▁grateful 1
RM 1
▁Pl 1
▁Tele 1
▁plugin 1
▁maxim 1
▁Hoch 1
igung 1
▁Entwicklung 1
▁File 1
▁Eastern 1
▁scrap 1
▁acquired 1
sau 1
▁Klein 1
▁milioane 1
▁Stand 1
▁childhood 1
▁artificial 1
▁substantial 1
druck 1
▁Kra 1
▁performances 1
▁row 1
NT 1
mod 1
remained 1
▁nimic 1
▁Limited 1
▁cookie 1
▁retain 1
▁600 1
▁eigene 1
▁tune 1
NS 1
▁dad 1
Moreover 1
ès 1
▁worship 1
▁Material 1
▁verb 1
ziehen 1
lton 1
▁boot 1
plo 1
CF 1
GM 1
▁Mix 1
▁Front 1
▁repairs 1
▁proportion 1
▁habit 1
▁hide 1
focusing 1
▁Annual 1
▁twin 1
▁acord 1
ehr 1
month 1
venir 1
Or 1
awa 1
lass 1
ffe 1
iți 1
NO 1
▁scope 1
▁lowest 1
▁afraid 1
▁subjects 1
▁templates 1
▁jos 1
DM 1
ensemble 1
▁Ski 1
DP 1
▁grip 1
2- 1
▁sécurité 1
▁mono 1
▁controls 1
SV 1
install 1
berry 1
nial 1
shed 1
▁celle 1
FR 1
äng 1
▁gaz 1
êt 1
▁viewing 1
▁asigura 1
bling 1
master 1
▁Fin 1
VC 1
▁patent 1
▁Clean 1
▁1970 1
▁Char 1
thi 1
bli 1
▁haut 1
tica 1
▁venit 1
▁compatible 1
▁hanging 1
UN 1
▁forth 1
▁painted 1
lip 1
▁deeply 1
▁participating 1
▁Iran 1
▁conventional 1
ARE 1
▁accuracy 1
▁Familie 1
▁Dir 1
▁gehen 1
▁moderne 1
▁Iraq 1
▁vente 1
▁Donald 1
▁passer 1
▁mehrere 1
▁Everything 1
▁studied 1
▁acquire 1
für 1
▁gal 1
▁headed 1
▁screening 1
▁findings 1
▁nutrition 1
▁Secretary 1
duct 1
born 1
« 1
▁statistics 1
▁Sydney 1
▁Prof 1
▁dialogue 1
▁gather 1
valu 1
▁currency 1
▁Kat 1
gotten 1
main 1
▁coin 1
▁Nick 1
vă 1
▁Victoria 1
▁conclusion 1
▁lemon 1
▁Article 1
▁necesar 1
mag 1
▁riding 1
▁Eli 1
▁cord 1
wä 1
ußerdem 1
▁Bed 1
▁layers 1
▁harder 1
▁processor 1
▁Ils 1
▁Edition 1
▁Link 1
éré 1
▁nume 1
▁Boy 1
▁equally 1
▁Regel 1
▁hopes 1
odor 1
▁initially 1
▁$4 1
▁exemplu 1
▁vari 1
schl 1
▁southern 1
▁mein 1
▁1994 1
▁importantly 1
▁succes 1
▁developer 1
▁lips 1
▁attitude 1
▁Age 1
▁corps 1
▁clicking 1
▁putem 1
▁journée 1
boy 1
▁injured 1
▁watched 1
▁flights 1
turn 1
▁stainless 1
▁besondere 1
▁Tur 1
▁hiring 1
▁roads 1
ificat 1
▁Flor 1
▁puternic 1
▁unexpected 1
▁Est 1
▁adopted 1
▁Fox 1
▁contributions 1
sec 1
IO 1
▁santé 1
▁Tree 1
▁scurt 1
▁Products 1
▁forecast 1
▁actor 1
▁Gallery 1
▁continuous 1
▁Hat 1
▁slip 1
9% 1
▁depression 1
UI 1
abile 1
▁merit 1
▁Fer 1
▁robot 1
▁gel 1
▁gentle 1
▁wanting 1
▁understood 1
▁terrain 1
▁associate 1
▁discussions 1
▁Job 1
spec 1
Dabei 1
etic 1
gol 1
▁20% 1
▁grup 1
▁Doctor 1
verse 1
▁victim 1
ță 1
▁scores 1
▁Policy 1
▁Anna 1
IV 1
▁mineral 1
live 1
▁grey 1
struct 1
▁emails 1
▁anymore 1
▁productivity 1
▁Dark 1
▁neither 1
▁quotes 1
LS 1
▁Arizona 1
night 1
élé 1
▁assigned 1
▁satellite 1
▁stability 1
▁networking 1
▁Transport 1
▁persons 1
fund 1
▁pratique 1
▁inca 1
iller 1
▁packed 1
▁Vegas 1
▁offre 1
▁Bin 1
stop 1
mini 1
▁jam 1
cord 1
▁Beautiful 1
▁trash 1
▁wise 1
▁accounting 1
▁différents 1
▁stil 1
suit 1
▁vier 1
▁permis 1
flow 1
▁col 1
ected 1
▁singer 1
▁GmbH 1
tics 1
▁ser 1
On 1
▁insights 1
BB 1
▁differ 1
▁Glass 1
▁Six 1
▁subscription 1
BC 1
▁returning 1
kleinen 1
▁advantages 1
omme 1
lus 1
now 1
▁Pack 1
▁leak 1
▁muscles 1
▁davon 1
mph 1
▁temple 1
▁Après 1
▁Illinois 1
▁variable 1
▁judgment 1
gran 1
▁pose 1
das 1
ures 1
▁Championship 1
ebenfalls 1
▁hydro 1
▁angle 1
▁5- 1
▁gest 1
▁Frau 1
▁knock 1
FS 1
spi 1
▁Regional 1
lets 1
▁Date 1
▁Finance 1
▁Dann 1
Star 1
▁Creek 1
▁fu 1
wohn 1
▁anniversary 1
▁investments 1
▁universal 1
▁pit 1
ște 1
▁lab 1
dienst 1
▁pal 1
▁graphic 1
▁bearing 1
▁stylish 1
▁mé 1
▁există 1
▁découvrir 1
comp 1
ridge 1
▁heads 1
▁consequences 1
self 1
fried 1
▁inventory 1
▁strip 1
▁Civil 1
bell 1
▁neben 1
▁Perfect 1
▁Notre 1
▁fraud 1
▁employers 1
▁Jackson 1
▁probleme 1
▁richtig 1
▁Method 1
▁tired 1
dies 1
▁Number 1
rland 1
▁latter 1
rendre 1
▁cameras 1
▁euch 1
▁Description 1
Spec 1
▁mile 1
▁Challenge 1
▁Solutions 1
▁trusted 1
▁einge 1
rück 1
▁Ober 1
kes 1
▁Log 1
▁dessert 1
▁murder 1
▁1/2 1
▁Provide 1
nivelul 1
nici 1
▁observe 1
▁prescription 1
▁Sau 1
▁genuine 1
▁operated 1
▁generous 1
▁weapons 1
▁belief 1
▁consum 1
▁unknown 1
deoarece 1
Art 1
▁kurz 1
▁Gut 1
▁medication 1
▁Mau 1
▁divorce 1
▁claimed 1
halten 1
▁Cons 1
▁operational 1
▁Hong 1
VI 1
▁Blick 1
▁lamp 1
pati 1
▁4- 1
▁interven 1
ques 1
▁Talk 1
▁zeigt 1
▁targeted 1
round 1
enfant 1
▁Reg 1
▁instruments 1
▁calcul 1
▁Henry 1
▁Cla 1
▁rack 1
sehen 1
▁ending 1
▁resolve 1
▁advise 1
▁sociale 1
▁cabin 1
▁involve 1
gă 1
▁automat 1
▁consultant 1
Bu 1
▁safely 1
état 1
▁pros 1
▁lies 1
▁Brian 1
▁talented 1
pus 1
▁hub 1
▁Ji 1
▁sought 1
▁energie 1
▁möchten 1
▁11. 1
▁Kong 1
▁grave 1
▁lists 1
tati 1
verschiedenen 1
dam 1
▁charity 1
▁breaking 1
kins 1
▁könnte 1
▁appointed 1
roc 1
▁Senate 1
wit 1
▁emerging 1
▁année 1
▁Cool 1
▁sensor 1
How 1
▁Ryan 1
▁computers 1
▁fault 1
▁présent 1
ulation 1
▁stir 1
lauf 1
▁AI 1
▁Bri 1
▁bain 1
▁5, 1
schein 1
▁weiß 1
▁possibilities 1
gur 1
▁hinter 1
Innen 1
▁vorba 1
fahren 1
▁Cell 1
univers 1
▁Follow 1
▁emotions 1
▁Ministry 1
▁curriculum 1
Je 1
▁gab 1
▁sigur 1
rise 1
Pri 1
▁stabil 1
▁superb 1
▁Oak 1
▁rubber 1
▁tag 1
PG 1
▁Heat 1
▁thousand 1
▁meets 1
▁faced 1
▁reserve 1
cateva 1
▁gym 1
▁vitamin 1
▁Rest 1
▁Single 1
▁Stephen 1
▁trick 1
DU 1
▁telefon 1
▁gând 1
▁primit 1
▁Connect 1
▁führt 1
▁Info 1
▁recall 1
▁restore 1
lege 1
▁franchise 1
▁seulement 1
reci 1
▁2019, 1
▁Ring 1
▁assembly 1
intérieur 1
▁shade 1
▁meaningful 1
bag 1
ONE 1
▁globe 1
▁WA 1
▁intervention 1
öl 1
▁Marine 1
▁Angebot 1
▁align 1
▁temperatures 1
ifier 1
▁Nigeria 1
▁survive 1
ounce 1
▁placement 1
▁deci 1
▁Taylor 1
step 1
▁Geschichte 1
▁Bet 1
▁Nature 1
▁FC 1
▁ownership 1
▁behaviour 1
▁deutlich 1
▁wondering 1
▁cleaner 1
uring 1
rä 1
▁ga 1
ador 1
▁artwork 1
ologic 1
▁eigentlich 1
▁hell 1
source 1
▁gem 1
▁boss 1
▁arise 1
about 1
▁SI 1
▁ME 1
akt 1
▁Style 1
▁Körper 1
gui 1
▁navigate 1
▁Meanwhile 1
▁așa 1
▁bulk 1
▁directions 1
▁brick 1
▁Poly 1
▁politique 1
▁patch 1
ра 1
commerce 1
▁înainte 1
▁intelligent 1
▁infection 1
▁Tru 1
▁raising 1
tragen 1
▁portrait 1
▁meisten 1
▁organize 1
metric 1
▁Season 1
▁enforcement 1
origine 1
▁Ros 1
▁Mount 1
have 1
▁romantic 1
▁comic 1
▁greu 1
ET 1
▁hook 1
▁mort 1
▁indicated 1
▁7, 1
▁Neben 1
yer 1
▁momentul 1
note 1
▁baz 1
▁abroad 1
nite 1
▁bass 1
▁norm 1
▁É 1
4. 1
▁province 1
▁merge 1
arbeiten 1
-20 1
▁Nicht 1
spo 1
size 1
▁assure 1
charge 1
▁olive 1
▁Pot 1
▁Figure 1
clair 1
▁discipline 1
elli 1
▁tackle 1
▁buyer 1
▁loud 1
▁180 1
▁căt 1
▁Palm 1
away 1
▁Mother 1
onia 1
▁Protection 1
auto 1
▁Version 1
▁Nice 1
▁12. 1
▁0, 1
ATION 1
▁Produkte 1
▁tube 1
▁Houston 1
chu 1
pas 1
▁Ele 1
▁mountains 1
PH 1
▁languages 1
▁servicii 1
▁Stay 1
fil 1
▁propos 1
▁coll 1
▁mor 1
▁arrange 1
▁sorry 1
▁instruction 1
▁holes 1
letting 1
▁wa 1
▁Feb 1
omb 1
▁prise 1
VO 1
week 1
▁Event 1
▁AT 1
ket 1
haft 1
▁hits 1
foli 1
this 1
GP 1
▁Pin 1
▁Stein 1
thing 1
▁emphasis 1
▁Mur 1
▁Bag 1
cons 1
tons 1
lash 1
▁Grant 1
▁pris 1
▁bună 1
▁buc 1
▁passe 1
▁jewelry 1
iens 1
▁forma 1
▁Med 1
laufen 1
▁hunt 1
stayed 1
party 1
▁fra 1
▁scenes 1
▁absorb 1
▁abilities 1
lug 1
▁Sarah 1
mpf 1
▁fle 1
accès 1
▁solicit 1
pie 1
▁Zum 1
▁universe 1
▁exists 1
oane 1
IVE 1
▁2011. 1
▁specialists 1
▁mess 1
fach 1
▁Recht 1
▁hack 1
▁jacket 1
HC 1
▁substance 1
▁signing 1
▁allerdings 1
▁publish 1
▁Lab 1
▁agenda 1
lane 1
stream 1
schau 1
▁realizat 1
▁supplier 1
▁moderate 1
▁tours 1
▁narrative 1
ația 1
▁maps 1
treten 1
▁mars 1
▁moon 1
rose 1
▁exp 1
zahl 1
psych 1
▁gehört 1
▁bound 1
▁submission 1
▁clubs 1
Am 1
tenir 1
▁boast 1
▁boards 1
▁Geschäfts 1
zing 1
wort 1
lid 1
▁contractor 1
▁donner 1
▁coupon 1
adresse 1
colo 1
▁perception 1
NC 1
▁abge 1
▁cheaper 1
▁grace 1
▁resident 1
kla 1
▁bug 1
▁Available 1
▁BA 1
▁Met 1
▁climb 1
▁expanded 1
ying 1
▁matching 1
▁suffered 1
▁employed 1
pper 1
▁experiencing 1
ddy 1
▁philosophy 1
▁utilisé 1
▁Jane 1
LI 1
▁elected 1
▁MI 1
▁ISO 1
winning 1
▁vot 1
▁generic 1
▁Bol 1
▁copies 1
▁mechanical 1
günstig 1
roy 1
Astfel 1
media 1
▁shoulder 1
▁directory 1
▁banking 1
▁mistakes 1
▁Fran 1
▁Jon 1
▁spare 1
metri 1
▁mask 1
▁consistently 1
▁Columbia 1
roid 1
essen 1
▁(“ 1
▁série 1
▁Phil 1
▁usor 1
▁stood 1
▁racing 1
▁Comme 1
▁exceed 1
на 1
▁activate 1
▁circle 1
▁bold 1
▁handy 1
merely 1
▁Edward 1
▁contracts 1
ê 1
▁campaigns 1
▁ought 1
▁nursing 1
▁Jr 1
▁rarely 1
▁Mir 1
▁diagnosis 1
▁Theatre 1
▁producer 1
Currently 1
▁fitting 1
▁ajunge 1
minte 1
▁termen 1
▁Linux 1
▁1- 1
▁hätte 1
▁Resort 1
image 1
▁Rod 1
▁Fly 1
try 1
▁expense 1
▁Interior 1
▁fence 1
▁Kontakt 1
▁ALL 1
VA 1
▁Exchange 1
ranked 1
▁Performance 1
prim 1
▁basket 1
▁Vice 1
phan 1
▁broke 1
voir 1
arg 1
ART 1
▁floors 1
pression 1
▁possession 1
▁domaine 1
▁valeur 1
▁suddenly 1
▁mild 1
▁aflat 1
▁Tea 1
tritt 1
▁Mittel 1
▁regulatory 1
▁spectacular 1
fahrt 1
GS 1
MM 1
▁environments 1
▁Raum 1
▁lay 1
▁cré 1
▁Selbst 1
▁opposition 1
two 1
▁Clark 1
▁Netz 1
bald 1
▁Innovation 1
▁overcome 1
quot 1
▁Sin 1
▁Sto 1
▁grain 1
▁collections 1
▁applies 1
mach 1
▁wheels 1
▁universities 1
▁Ray 1
lina 1
▁arrangements 1
▁western 1
rous 1
aise 1
▁highlights 1
▁intend 1
aimed 1
▁Scotland 1
▁acestei 1
graf 1
duction 1
path 1
▁evil 1
▁scris 1
▁disposition 1
▁designing 1
zwar 1
▁Retrieve 1
▁aggressive 1
▁Glen 1
▁daher 1
▁Quick 1
▁recover 1
▁prominent 1
▁visits 1
▁Mis 1
▁edited 1
▁distributed 1
▁dés 1
▁alter 1
▁cooked 1
embl 1
Univers 1
▁Minuten 1
▁compris 1
rais 1
essentially 1
▁rel 1
▁appel 1
▁trace 1
relating 1
dès 1
aste 1
▁raison 1
▁frequent 1
▁beds 1
▁Miami 1
▁vibrant 1
▁Kam 1
▁klar 1
▁Tan 1
▁vidéo 1
▁Kur 1
▁themes 1
▁struggling 1
▁Magazine 1
maker 1
veni 1
▁Groß 1
▁streaming 1
▁analyze 1
▁titles 1
pier 1
▁participant 1
aims 1
▁convention 1
▁flood 1
▁nights 1
▁titre 1
▁voul 1
weit 1
where 1
▁Seiten 1
▁relaxing 1
▁piano 1
▁Pick 1
▁Sony 1
▁enhanced 1
▁visa 1
CH 1
▁instantly 1
▁Fan 1
▁diabetes 1
▁popul 1
Ang 1
▁Ask 1
cate 1
▁simplu 1
nahme 1
▁dentist 1
ubi 1
article 1
▁graph 1
▁rival 1
jahr 1
▁bloc 1
fern 1
▁dispar 1
▁servers 1
▁patru 1
▁Within 1
▁situated 1
▁HR 1
▁leaf 1
▁curs 1
antes 1
lux 1
▁1993 1
stance 1
▁northern 1
lves 1
▁contractors 1
▁dimensions 1
▁rolling 1
▁automobile 1
▁cru 1
▁displays 1
web 1
had 1
▁Never 1
▁2- 1
vine 1
▁Wahl 1
▁Markt 1
▁Double 1
▁acknowledge 1
stal 1
▁equity 1
▁ministry 1
▁Lor 1
▁sud 1
idée 1
▁measured 1
▁editing 1
▁singur 1
▁coal 1
▁dramatic 1
AG 1
asca 1
▁crash 1
ischer 1
▁Pla 1
▁psycho 1
piece 1
▁finger 1
▁Hollywood 1
▁Cr 1
▁locally 1
▁mouse 1
▁Base 1
uite 1
▁detect 1
cea 1
▁bull 1
▁curve 1
été 1
ddle 1
▁span 1
WS 1
CL 1
▁officially 1
▁corect 1
▁Artikel 1
▁customized 1
▁intellectual 1
▁heures 1
schule 1
▁investing 1
▁parallel 1
▁loi 1
ările 1
р 1
▁bench 1
▁principle 1
▁Galaxy 1
ța 1
▁(4 1
▁bedrooms 1
née 1
▁surely 1
very 1
stelle 1
activ 1
cite 1
▁Original 1
▁palm 1
▁losses 1
▁newspaper 1
ciu 1
▁Hold 1
BO 1
▁CON 1
▁modified 1
▁stake 1
▁Ton 1
▁luna 1
▁Mind 1
lap 1
▁opinions 1
▁Jordan 1
div 1
indi 1
▁Story 1
▁affiliate 1
▁matière 1
▁fifth 1
▁sheets 1
▁puțin 1
ush 1
geführt 1
▁Falls 1
legi 1
▁auction 1
▁cooperation 1
▁Fee 1
▁Daily 1
pies 1
▁basketball 1
removing 1
Besides 1
▁Body 1
▁AD 1
RU 1
ţia 1
▁Extra 1
▁Practice 1
▁Jeff 1
▁început 1
ching 1
▁Gift 1
kk 1
") 1
▁Austin 1
thro 1
▁camping 1
▁theatre 1
école 1
vient 1
▁faces 1
▁constructed 1
▁overnight 1
▁locale 1
▁roots 1
▁bu 1
4, 1
▁Enterprise 1
screen 1
▁Chef 1
▁Along 1
▁MD 1
▁Supreme 1
En 1
▁verwendet 1
▁processed 1
▁vendors 1
▁FA 1
▁44 1
▁beautifully 1
▁eficient 1
▁Wil 1
▁Member 1
▁damages 1
▁mutual 1
SN 1
▁Dave 1
?? 1
stat 1
▁tourist 1
fie 1
şte 1
▁donne 1
▁shadow 1
▁dough 1
▁Gro 1
▁Mah 1
RF 1
▁mechanism 1
▁2011, 1
▁Alter 1
▁opposed 1
▁Fri 1
▁remarkable 1
oral 1
▁verschiedene 1
▁difficulty 1
▁Application 1
▁Hay 1
▁continua 1
EP 1
▁Pr 1
▁Lady 1
▁interval 1
▁Mil 1
▁2010. 1
VE 1
integr 1
▁création 1
weed 1
EG 1
▁6, 1
▁god 1
▁accomplish 1
▁thoroughly 1
2019 1
izer 1
▁Wal 1
ifying 1
▁Wohn 1
▁Holz 1
▁Advanced 1
▁honey 1
proof 1
▁saison 1
ându 1
▁Kevin 1
▁shelter 1
▁discut 1
▁hike 1
ités 1
▁boutique 1
▁Email 1
▁cosmetic 1
dian 1
▁hohe 1
▁absence 1
axi 1
nah 1
▁Frauen 1
▁actively 1
bind 1
▁everybody 1
▁controller 1
▁1.5 1
erau 1
gehen 1
▁scenario 1
▁odd 1
▁Ultra 1
▁finishing 1
▁cuts 1
▁financing 1
▁Chance 1
surrounded 1
▁joc 1
▁shelf 1
tief 1
▁Sir 1
▁Agent 1
▁scratch 1
2,000 1
nutri 1
nier 1
▁Dur 1
▁grid 1
road 1
▁pets 1
stud 1
OM 1
Die 1
▁800 1
▁arrangement 1
▁Sri 1
▁Patrick 1
ava 1
▁pension 1
dung 1
▁Chapter 1
▁Property 1
▁structural 1
▁overview 1
2015 1
▁lawn 1
▁Vin 1
lik 1
dus 1
Several 1
▁Bou 1
▁copper 1
▁duration 1
inate 1
▁podcast 1
▁Self 1
▁Construction 1
achat 1
??? 1
▁Electric 1
▁Mrs 1
▁CT 1
▁proceed 1
▁Course 1
▁Frei 1
▁heavily 1
rique 1
version 1
▁representatives 1
▁tourism 1
▁shirt 1
▁rough 1
▁weniger 1
▁keyboard 1
▁heritage 1
kat 1
assez 1
▁cabinets 1
▁Komm 1
▁impressed 1
▁Oregon 1
▁Davis 1
specialized 1
▁gross 1
Located 1
ttle 1
▁2010, 1
chan 1
mine 1
▁aduce 1
▁subsequent 1
▁demo 1
aba 1
▁shock 1
▁theater 1
▁engineers 1
▁feu 1
▁Rot 1
▁addressed 1
▁Letter 1
gré 1
▁quantity 1
▁Seit 1
▁bacteria 1
kg 1
▁conservation 1
▁entreprises 1
▁pleasant 1
armed 1
dorf 1
fact 1
▁Much 1
▁laugh 1
▁blade 1
amine 1
▁insert 1
▁toys 1
▁в 1
cell 1
▁strengthen 1
GR 1
▁autor 1
▁LI 1
▁oamenii 1
▁Modell 1
▁sophisticated 1
▁Write 1
eți 1
say 1
▁nutzen 1
▁amenities 1
chel 1
Unlike 1
▁Bilder 1
fertig 1
PER 1
▁apparently 1
▁pointed 1
lop 1
▁commande 1
▁NEW 1
▁primi 1
▁aluminum 1
ificare 1
open 1
▁establishment 1
▁blanc 1
▁1960 1
▁parameters 1
schluss 1
▁jet 1
gam 1
▁oral 1
▁tons 1
▁AL 1
▁intention 1
ives 1
▁BMW 1
gun 1
leben 1
▁Fresh 1
▁tuturor 1
▁marine 1
mile 1
▁alta 1
nnen 1
▁courts 1
▁Hello 1
BL 1
▁reply 1
environnement 1
American 1
▁Tell 1
▁chic 1
bir 1
▁singing 1
▁earnings 1
▁ensemble 1
▁($ 1
▁Tout 1
▁Abs 1
▁describes 1
▁navigation 1
▁destul 1
legate 1
tral 1
aţie 1
▁supplied 1
▁paar 1
ionat 1
9. 1
▁41 1
▁Track 1
▁happiness 1
▁Personen 1
▁sac 1
▁shapes 1
eld 1
bett 1
tile 1
▁divided 1
▁13. 1
market 1
crafted 1
▁periods 1
uş 1
▁trainer 1
▁Licht 1
▁advisor 1
▁Herr 1
▁Halloween 1
alter 1
▁radical 1
▁nose 1
▁Sat 1
▁Mom 1
moni 1
▁semn 1
vé 1
identifie 1
▁hatten 1
completing 1
▁gust 1
▁creat 1
ché 1
pay 1
▁Money 1
IG 1
▁Cash 1
altă 1
▁bekommen 1
▁43 1
▁supplement 1
▁Early 1
▁mattress 1
▁worn 1
rov 1
▁pray 1
▁beans 1
▁passé 1
▁facilit 1
▁meters 1
cke 1
▁Villa 1
▁Diego 1
▁chips 1
▁mes 1
▁Seattle 1
BU 1
▁nevoi 1
▁lets 1
▁hopefully 1
▁AG 1
liable 1
pound 1
près 1
arul 1
isiert 1
▁Expert 1
▁particulier 1
stoff 1
▁interpretation 1
După 1
sait 1
▁nouvelles 1
▁Ok 1
tap 1
▁targets 1
rung 1
▁stare 1
▁efficiently 1
EV 1
évit 1
▁Moldova 1
▁Face 1
▁flo 1
▁acestora 1
▁Victor 1
▁breed 1
morph 1
sley 1
mot 1
▁URL 1
ellen 1
▁resist 1
zon 1
ndel 1
will 1
▁alege 1
▁Easter 1
▁Bat 1
▁Höhe 1
▁fascinating 1
▁Know 1
illon 1
flex 1
who 1
▁Always 1
▁Bush 1
ICE 1
verein 1
▁später 1
▁cherch 1
makers 1
versus 1
▁Clear 1
▁Pennsylvania 1
Dieser 1
▁picking 1
▁restoration 1
▁interviews 1
pressed 1
nnerhalb 1
▁connecting 1
jou 1
▁react 1
▁Merci 1
▁Phone 1
▁1) 1
▁victims 1
▁Spo 1
atului 1
▁Harry 1
▁Sala 1
Pol 1
▁Clo 1
▁Erfolg 1
autour 1
▁Template 1
▁invention 1
▁schwer 1
vac 1
▁Trail 1
▁Vietnam 1
▁Size 1
▁Bern 1
▁emp 1
▁shake 1
▁Ave 1
▁productive 1
▁apple 1
▁portal 1
▁ceramic 1
▁pad 1
▁Syn 1
Ab 1
▁syn 1
find 1
▁settle 1
▁général 1
▁okay 1
▁receipt 1
orii 1
▁Mission 1
entrée 1
▁besteht 1
▁wisdom 1
▁heraus 1
▁balanced 1
▁habits 1
tang 1
ură 1
▁winners 1
ç 1
▁folosi 1
aliment 1
▁fiction 1
▁Spe 1
▁elsewhere 1
▁dependent 1
▁Anne 1
▁excellence 1
▁Feel 1
lieb 1
▁sectors 1
▁expir 1
▁surfaces 1
▁minim 1
▁tumor 1
▁paragraph 1
▁disk 1
▁tonight 1
▁precious 1
▁console 1
Th 1
neu 1
effective 1
▁Republican 1
format 1
▁preserve 1
▁wiring 1
▁exercises 1
▁pregnancy 1
tries 1
▁jeunes 1
▁publishing 1
▁nehmen 1
▁capability 1
▁prompt 1
▁Further 1
▁semaine 1
abo 1
▁evolution 1
▁Sud 1
▁frais 1
LT 1
▁stack 1
▁Inside 1
▁programmes 1
▁passes 1
mü 1
▁progressive 1
▁calculator 1
▁Core 1
BT 1
core 1
▁Moon 1
▁tender 1
durch 1
▁commune 1
▁Prince 1
▁demonstrated 1
▁conversations 1
▁fri 1
igh 1
being 1
pause 1
▁Bear 1
ayant 1
▁Industry 1
▁sponsor 1
▁numele 1
▁VA 1
▁Sommer 1
TB 1
▁optional 1
▁Landes 1
coli 1
empt 1
▁Iron 1
▁1992 1
▁attempts 1
halb 1
▁photographer 1
▁witness 1
bru 1
▁Ras 1
▁burden 1
▁kaufen 1
▁vu 1
▁Wedding 1
▁Kla 1
occasion 1
▁keys 1
▁oferi 1
▁puzzle 1
eaux 1
▁Eco 1
▁52 1
▁Elizabeth 1
▁dispose 1
▁cluster 1
iki 1
▁Guys 1
▁Economic 1
▁apar 1
▁ziua 1
▁integral 1
▁tac 1
▁restrictions 1
▁nerve 1
▁Stop 1
burger 1
explo 1
lö 1
NP 1
▁Brook 1
▁Close 1
▁representing 1
▁certaine 1
▁discovery 1
▁rece 1
FF 1
▁salary 1
▁Wolf 1
▁deserve 1
ţele 1
gathered 1
▁comply 1
lagen 1
ătoare 1
▁relate 1
▁Roger 1
▁blame 1
▁Jen 1
▁army 1
▁$10 1
▁Cabinet 1
Gu 1
▁wildlife 1
▁Memorial 1
▁Holiday 1
▁curat 1
iilor 1
▁fleet 1
▁reviewed 1
cet 1
▁virtually 1
▁Crusher 1
▁slide 1
▁générale 1
▁sensation 1
▁garlic 1
5) 1
▁batteries 1
SH 1
▁seller 1
design 1
5. 1
▁Overall 1
▁investigate 1
max 1
▁attach 1
▁Future 1
OUR 1
▁LE 1
▁bite 1
tige 1
▁twist 1
hole 1
▁Tony 1
LU 1
▁Organization 1
▁invit 1
▁Ant 1
NR 1
sorgt 1
▁Lan 1
▁Manchester 1
schrift 1
▁kg 1
▁aroma 1
▁Source 1
▁permite 1
▁Consider 1
▁Artist 1
▁transmit 1
oasa 1
▁Zen 1
ANT 1
▁consulting 1
▁commence 1
▁quilt 1
owned 1
▁bro 1
▁integrate 1
▁Ontario 1
TF 1
▁Study 1
▁ensuite 1
itatii 1
Mon 1
-11 1
what 1
▁Things 1
▁Eye 1
▁présente 1
tention 1
| 1
stall 1
▁beef 1
figur 1
▁cancel 1
▁domeniul 1
▁360 1
▁sleeping 1
▁traitement 1
ühl 1
▁Environmental 1
cier 1
▁NC 1
pub 1
▁addiction 1
▁nest 1
▁ON 1
▁discrimin 1
▁proved 1
▁occasions 1
OH 1
▁lawyers 1
own 1
▁Meeting 1
▁Industrial 1
owed 1
▁Cel 1
legt 1
ily 1
▁wins 1
▁strap 1
digit 1
▁hinaus 1
mple 1
▁(5 1
▁pdf 1
▁eco 1
▁junior 1
DB 1
gelegt 1
ION 1
▁competitors 1
▁Arab 1
▁Secret 1
▁Kunst 1
▁worried 1
meiner 1
▁Magic 1
▁groß 1
▁travaux 1
▁sollen 1
▁Sciences 1
▁athletes 1
▁discounts 1
kit 1
lind 1
▁enjoyable 1
ground 1
▁Tat 1
▁passengers 1
▁Dami 1
▁Major 1
watch 1
working 1
arrêt 1
▁subtle 1
▁epi 1
▁Jahres 1
▁cooling 1
▁makeup 1
jet 1
▁Given 1
plex 1
▁exploit 1
rine 1
▁delivers 1
▁summary 1
▁beaches 1
lift 1
▁Suite 1
▁Assistant 1
▁taxi 1
▁peaceful 1
▁Mode 1
▁Fun 1
▁diameter 1
▁phrase 1
ACT 1
▁différentes 1
▁14. 1
▁CE 1
▁2) 1
▁Nat 1
▁delete 1
other 1
hang 1
▁sujet 1
▁precise 1
▁Total 1
▁chambre 1
sati 1
▁Metal 1
rust 1
▁Brazil 1
▁hybrid 1
ops 1
▁electro 1
utz 1
▁quoi 1
▁adoption 1
3.5 1
50,000 1
veti 1
hir 1
▁adequate 1
ologist 1
torii 1
wasser 1
▁Authority 1
▁donation 1
700 1
▁somehow 1
▁kostenlos 1
▁generations 1
▁Turkey 1
rata 1
▁animation 1
▁CH 1
ending 1
welt 1
bac 1
MG 1
▁parks 1
▁placing 1
sort 1
▁Bitcoin 1
▁disorder 1
MAN 1
aught 1
▁guides 1
▁circul 1
▁Steven 1
rrière 1
▁Arch 1
▁plates 1
MR 1
▁cow 1
▁integrity 1
▁(18 1
▁totul 1
jack 1
▁privire 1
▁terme 1
▁execution 1
▁organism 1
▁führen 1
▁patron 1
▁appreciated 1
liant 1
▁Solar 1
▁vinyl 1
▁treasure 1
▁retro 1
▁bout 1
lab 1
▁dimension 1
called 1
▁intern 1
issement 1
▁Erst 1
▁stellen 1
▁familia 1
▁notion 1
▁Could 1
Getting 1
▁drives 1
▁Israeli 1
▁nations 1
▁duties 1
▁personalized 1
▁weren 1
▁chemicals 1
▁killing 1
▁masa 1
▁parce 1
▁lady 1
ides 1
▁execut 1
▁floral 1
▁Child 1
▁medal 1
▁casa 1
▁enabled 1
12. 1
nger 1
▁vent 1
▁urmă 1
▁Herz 1
▁Jay 1
..... 1
▁Kris 1
kenn 1
ress 1
weight 1
▁indicates 1
▁mentor 1
using 1
▁femmes 1
▁Jung 1
▁Send 1
▁seasons 1
▁aesthetic 1
▁Block 1
▁babies 1
zig 1
edge 1
▁alike 1
▁immune 1
▁magical 1
▁Snow 1
▁spacious 1
▁Melbourne 1
order 1
▁timing 1
▁inainte 1
▁width 1
bild 1
Tra 1
▁appliances 1
▁dirt 1
▁Rent 1
responsibilities 1
▁blogs 1
nächsten 1
▁argue 1
▁Resume 1
▁Michel 1
▁terrible 1
graph 1
bird 1
▁Simple 1
nning 1
▁coconut 1
▁comprise 1
heure 1
▁nichts 1
▁manufacture 1
▁Sar 1
green 1
lining 1
▁tremendous 1
▁Wine 1
gir 1
▁Nothing 1
▁Miller 1
▁Schwe 1
zone 1
▁cunoscut 1
rupt 1
kle 1
▁Bucuresti 1
▁Abend 1
▁aura 1
▁Dance 1
▁Wilson 1
icide 1
bai 1
oriented 1
▁celebrated 1
schlag 1
▁10- 1
Unsere 1
énergie 1
▁qualify 1
▁contenu 1
▁Lauf 1
▁einzelne 1
▁Youth 1
explains 1
grat 1
▁72 1
labor 1
2018 1
▁Dank 1
▁Hey 1
▁refuse 1
▁graduated 1
▁României 1
punkt 1
▁regulation 1
Bru 1
▁Side 1
▁sol 1
▁extraordinary 1
▁ging 1
▁Creative 1
▁expanding 1
▁problème 1
▁Reserve 1
auteur 1
sphere 1
season 1
frei 1
▁8, 1
▁filing 1
▁Complete 1
▁revolution 1
▁unele 1
/8 1
istes 1
backed 1
shirt 1
▁Details 1
rod 1
▁pod 1
▁operators 1
was 1
hou 1
▁Coach 1
irii 1
▁ordinary 1
Institut 1
▁Flash 1
0- 1
▁flavour 1
specific 1
▁landing 1
▁geo 1
▁legend 1
vari 1
rop 1
▁Excel 1
▁Flu 1
▁intent 1
▁Deep 1
▁Kor 1
▁Philadelphia 1
▁rând 1
▁USD 1
laden 1
▁Hin 1
hap 1
▁thorough 1
▁oferit 1
kind 1
▁Cancer 1
apo 1
▁valve 1
▁encouraging 1
▁sûr 1
shing 1
▁49 1
gov 1
▁Five 1
▁stroke 1
▁apă 1
▁gambling 1
▁nord 1
onal 1
▁captured 1
▁lucruri 1
serait 1
▁Members 1
ital 1
▁mounted 1
▁opens 1
▁Marie 1
Tech 1
▁wishes 1
▁regards 1
going 1
Opti 1
▁femei 1
▁Fish 1
▁mount 1
▁Hunt 1
▁probabil 1
▁assured 1
pho 1
▁manufactured 1
▁realistic 1
ații 1
▁Planning 1
▁român 1
ggy 1
▁produces 1
▁reminder 1
TION 1
▁brake 1
▁pla 1
▁Premium 1
▁carb 1
▁shine 1
▁carrier 1
▁poverty 1
▁effectiveness 1
administr 1
▁Chamber 1
▁suntem 1
▁noastră 1
▁sofort 1
▁moisture 1
limb 1
entre 1
▁SD 1
▁BC 1
▁selecting 1
achieving 1
info 1
▁membres 1
▁shoe 1
▁locate 1
▁assignment 1
lern 1
▁defeat 1
▁endless 1
▁Stunden 1
то 1
▁mur 1
▁wissen 1
aime 1
1-2 1
▁femme 1
robe 1
▁embrace 1
▁baseball 1
▁hunting 1
betrieb 1
▁gardens 1
▁risc 1
▁Cri 1
best 1
▁Audio 1
▁intens 1
▁Round 1
▁fireplace 1
▁dozen 1
▁hospitals 1
▁profits 1
▁Mail 1
obtenir 1
▁Ross 1
bun 1
polar 1
▁reflection 1
▁fut 1
phon 1
deck 1
renowned 1
▁cate 1
▁decorative 1
ieri 1
▁Tap 1
▁Dallas 1
rik 1
▁pied 1
rés 1
ppy 1
▁bitte 1
▁cave 1
▁rescue 1
▁Hilfe 1
▁Jason 1
▁Nations 1
▁profil 1
▁Atlantic 1
▁rub 1
▁collaborative 1
étude 1
▁Workshop 1
nez 1
▁chacun 1
▁Too 1
App 1
▁conseil 1
▁signals 1
▁Dead 1
▁Austria 1
▁slots 1
▁Dies 1
raj 1
stick 1
▁jaw 1
▁lounge 1
curi 1
nem 1
▁Cluj 1
▁rapide 1
▁companion 1
▁WE 1
▁bord 1
ody 1
gru 1
▁46 1
kra 1
eller 1
naire 1
hose 1
▁Atlanta 1
▁violent 1
▁imagination 1
▁reward 1
▁Korean 1
▁branches 1
▁GPS 1
glo 1
▁condo 1
▁Investment 1
▁involvement 1
▁trap 1
▁schön 1
▁ofera 1
▁unterschiedlich 1
Net 1
▁predict 1
identifying 1
▁noir 1
kos 1
poz 1
▁11, 1
▁fitted 1
MU 1
TT 1
▁vrea 1
▁wound 1
lac 1
▁purchases 1
▁Cape 1
▁Foto 1
▁acres 1
▁nec 1
▁burning 1
conf 1
▁browse 1
ural 1
▁Ah 1
▁stellt 1
▁ratings 1
▁Bowl 1
▁grav 1
titi 1
▁prêt 1
▁fallen 1
▁nombreuses 1
train 1
ène 1
Aceasta 1
▁drill 1
▁Exam 1
▁Furniture 1
eanu 1
étant 1
sville 1
▁swim 1
▁routes 1
INE 1
▁Por 1
ither 1
▁optim 1
▁lua 1
▁myth 1
▁Bett 1
chim 1
▁cyber 1
▁engineer 1
▁exploration 1
arranged 1
▁aged 1
▁beau 1
OUT 1
▁Minnesota 1
tress 1
▁Commercial 1
▁inspiring 1
▁Mare 1
apa 1
▁ignore 1
▁gros 1
▁measurement 1
ager 1
intele 1
▁suspension 1
▁cultures 1
▁Wow 1
▁pushing 1
▁bands 1
nage 1
▁Math 1
comb 1
▁créer 1
▁Lewis 1
▁VI 1
emploi 1
▁elections 1
▁logic 1
▁unlike 1
▁Matthew 1
▁pă 1
oxy 1
équipe 1
▁worden 1
dev 1
▁Massachusetts 1
▁Return 1
▁Friends 1
▁movements 1
chie 1
rak 1
▁Fit 1
▁copil 1
iunii 1
▁intensive 1
▁rug 1
lichkeit 1
kov 1
▁pense 1
pop 1
▁closet 1
▁prevention 1
▁Deb 1
▁devant 1
▁construit 1
▁breaks 1
otic 1
▁dig 1
▁près 1
chte 1
▁Chat 1
wel 1
▁edges 1
▁keen 1
▁infant 1
▁Hills 1
▁grounds 1
▁hab 1
▁Mun 1
▁references 1
▁hearts 1
exprim 1
▁tratament 1
LD 1
ssel 1
cover 1
bridge 1
▁Wein 1
▁voiture 1
▁Gemeinde 1
AI 1
▁renovation 1
bid 1
▁Reading 1
▁Gor 1
fur 1
▁Yoga 1
▁exclusively 1
▁emissions 1
ète 1
▁glasses 1
▁organizat 1
▁washing 1
▁Audi 1
▁Labor 1
▁legacy 1
▁abstract 1
▁knowledgeable 1
▁Glo 1
▁pregnant 1
liter 1
▁paintings 1
▁tête 1
voy 1
▁Jacob 1
▁dressing 1
▁provisions 1
bahn 1
▁depict 1
AW 1
▁bleibt 1
AND 1
▁fünf 1
▁hosts 1
vas 1
DO 1
▁max 1
▁contributed 1
roz 1
▁deschis 1
itaire 1
tube 1
▁Beck 1
▁curious 1
▁waves 1
▁regret 1
FO 1
droit 1
rö 1
▁Panel 1
▁pile 1
▁installing 1
▁Intr 1
nung 1
▁Outdoor 1
▁generator 1
▁zahlreiche 1
▁Third 1
frac 1
ovi 1
▁Casa 1
▁stomach 1
▁Lincoln 1
▁Electronic 1
coding 1
2017 1
▁friendship 1
ried 1
но 1
▁tail 1
▁petits 1
▁réseau 1
▁churches 1
▁marketplace 1
▁Pool 1
▁popularity 1
▁sprijin 1
▁Od 1
▁Transfer 1
▁fake 1
▁9, 1
▁weit 1
▁relaxed 1
pig 1
▁Lauren 1
gesetzt 1
▁Clar 1
▁unlikely 1
color 1
▁spouse 1
▁facile 1
▁Speed 1
KE 1
▁PO 1
▁Channel 1
argent 1
▁Making 1
▁Coll 1
cci 1
corresponding 1
▁heaven 1
ţă 1
▁darüber 1
acted 1
only 1
▁slight 1
lian 1
flă 1
▁vulnerable 1
▁creator 1
▁protecting 1
writing 1
▁Ter 1
▁barb 1
▁dată 1
▁Screen 1
▁BBC 1
Col 1
fung 1
▁dreptul 1
derived 1
▁designated 1
▁interactions 1
SG 1
▁häufig 1
▁Mega 1
▁jazz 1
lbs 1
▁Manual 1
pushed 1
▁analytics 1
▁lawsuit 1
▁gray 1
shirts 1
▁hill 1
▁1991 1
▁obligations 1
▁Dubai 1
() 1
▁acceptable 1
therapist 1
inger 1
▁territory 1
▁sang 1
ät 1
▁Zukunft 1
TU 1
▁horizontal 1
▁entrepreneurs 1
▁Eltern 1
▁presentations 1
▁confirmation 1
▁technological 1
▁1989 1
EF 1
ponent 1
NET 1
750 1
▁desert 1
▁contribu 1
▁Gun 1
▁Juli 1
ERS 1
▁inceput 1
▁answered 1
▁basement 1
film 1
▁taille 1
▁survival 1
ihnen 1
▁Bird 1
speed 1
▁journalist 1
▁Indonesia 1
▁15. 1
▁19. 1
étaient 1
▁tennis 1
▁aproximativ 1
▁Hans 1
▁Remove 1
▁cats 1
▁calories 1
▁limitations 1
▁subscribe 1
▁Dem 1
lust 1
▁adresa 1
▁sais 1
..." 1
▁Luft 1
DL 1
▁estimates 1
▁protocol 1
▁Namen 1
▁grands 1
▁voter 1
▁vacuum 1
▁versch 1
▁Democratic 1
▁Books 1
▁frames 1
▁Bee 1
▁helfen 1
▁dive 1
▁physician 1
▁powered 1
▁zones 1
▁regime 1
check 1
11. 1
▁plaisir 1
▁physically 1
▁Pul 1
▁jardin 1
▁Nur 1
WC 1
▁Lock 1
▁économique 1
user 1
▁commit 1
▁oldest 1
▁fulfill 1
▁nervous 1
▁SH 1
SK 1
▁plein 1
show 1
▁disability 1
papier 1
▁Corp 1
ători 1
nţă 1
▁overseas 1
▁struck 1
astic 1
▁advised 1
BE 1
▁UV 1
patient 1
▁texte 1
▁timely 1
used 1
▁occasionally 1
▁entries 1
underlying 1
01. 1
▁automated 1
yes 1
▁Staff 1
▁Einzel 1
quit 1
▁Cela 1
▁snap 1
▁followers 1
CN 1
▁Cooper 1
ô 1
▁memorable 1
▁jur 1
▁ajutorul 1
▁Enter 1
Often 1
▁dintr 1
-30 1
ESS 1
▁weird 1
▁Animal 1
▁complement 1
▁Bot 1
▁darf 1
yed 1
▁Mul 1
lick 1
▁Cambridge 1
adore 1
▁Dutch 1
▁Castle 1
igi 1
▁enemy 1
accompanied 1
▁teren 1
▁ET 1
ffle 1
-15 1
▁Geo 1
▁attractions 1
iker 1
▁bă 1
▁heal 1
weisen 1
▁spectrum 1
meld 1
▁eveniment 1
arra 1
rete 1
▁Had 1
looking 1
isierung 1
▁moyen 1
▁gesamte 1
▁destroy 1
125 1
▁suivant 1
▁declared 1
▁Urban 1
▁16. 1
▁Beg 1
▁canal 1
▁Pres 1
▁geeignet 1
▁strat 1
UB 1
▁Alexander 1
cycle 1
▁Var 1
▁domin 1
▁lasting 1
terio 1
▁Battle 1
▁publications 1
▁implica 1
▁NA 1
▁stocks 1
Plat 1
▁excitement 1
▁Muslim 1
▁Mari 1
▁Ul 1
nächst 1
▁trait 1
▁(3) 1
▁Attorney 1
▁Malaysia 1
▁slab 1
▁dam 1
▁Bir 1
▁sing 1
▁Culture 1
UD 1
▁Mes 1
ități 1
▁possess 1
enabling 1
▁settled 1
▁sagen 1
▁erfolgt 1
dog 1
ndu 1
ității 1
▁Islam 1
▁catalog 1
▁simt 1
tische 1
▁Mach 1
▁EP 1
▁Certified 1
▁Resources 1
▁Past 1
▁Termin 1
▁lightweight 1
▁championship 1
gebiet 1
▁jurisdiction 1
▁euros 1
▁Familien 1
▁GT 1
▁dvs 1
▁nouveaux 1
▁chill 1
▁ridicat 1
his 1
▁Indi 1
▁arrested 1
ităţii 1
onul 1
appar 1
▁Bachelor 1
▁erfolgreich 1
▁versatile 1
▁nécessaire 1
▁facial 1
▁Bull 1
Comm 1
atte 1
hom 1
start 1
▁roughly 1
▁bay 1
▁american 1
▁Wisconsin 1
▁Clinton 1
appareil 1
▁liberal 1
▁dau 1
ech 1
2014 1
▁lip 1
▁maintenant 1
▁Sil 1
rben 1
▁contents 1
▁magnetic 1
▁terre 1
▁Rights 1
lose 1
▁crown 1
▁oils 1
▁entertaining 1
▁Option 1
▁Previous 1
▁vrai 1
▁Auswahl 1
▁horses 1
▁Author 1
▁Writing 1
▁travelling 1
▁350 1
daten 1
zan 1
▁sweat 1
▁Junior 1
markt 1
after 1
▁admitted 1
▁1950 1
▁Sche 1
▁dorit 1
▁transferred 1
utilise 1
sitz 1
gio 1
▁bisher 1
RD 1
▁Wales 1
▁smoking 1
dire 1
▁seating 1
▁constat 1
▁Hub 1
▁sieht 1
▁prospect 1
▁RO 1
▁Wars 1
eek 1
▁Bring 1
▁bleiben 1
arri 1
inal 1
▁Maryland 1
▁Process 1
They 1
▁Oxford 1
▁neat 1
▁cinema 1
▁Ist 1
▁vegan 1
wall 1
▁motive 1
▁mature 1
▁Dragon 1
▁google 1
blick 1
▁Cod 1
▁suffi 1
▁terrorist 1
Posted 1
▁Schi 1
▁Marc 1
▁operates 1
gress 1
has 1
sole 1
▁Buck 1
impl 1
▁Ron 1
▁handled 1
▁Apr 1
▁Storage 1
▁temp 1
▁differently 1
▁wherever 1
matched 1
rios 1
▁surprising 1
teilen 1
▁difficulties 1
tab 1
▁Leader 1
implementing 1
▁workforce 1
▁bereit 1
vig 1
▁LOVE 1
▁instances 1
▁frumos 1
▁Java 1
▁arrest 1
▁apparent 1
▁hence 1
▁entwickelt 1
▁Fra 1
▁prend 1
ließ 1
▁drawer 1
ARD 1
▁caring 1
▁wollte 1
▁vielleicht 1
▁iconic 1
äch 1
abel 1
▁génér 1
ault 1
▁alternatives 1
think 1
ро 1
whereas 1
erei 1
▁Eagle 1
situé 1
▁laboratory 1
▁Nutzung 1
▁Bathroom 1
▁loaded 1
niste 1
som 1
▁aucun 1
gebracht 1
▁tomb 1
▁Ty 1
▁afaceri 1
tex 1
ality 1
▁identification 1
▁cultiv 1
Not 1
▁acestor 1
▁PhD 1
nell 1
▁dial 1
chro 1
▁specifications 1
anii 1
▁cloth 1
▁highway 1
▁Vitamin 1
▁indication 1
80% 1
▁Lion 1
▁10, 1
▁Werk 1
▁combin 1
▁releases 1
LL 1
ktor 1
ufgrund 1
calc 1
▁accomplished 1
▁los 1
▁distant 1
▁secteur 1
logue 1
▁betting 1
elf 1
puteti 1
▁Moment 1
▁scoring 1
▁freuen 1
▁fastest 1
▁directors 1
▁fame 1
▁complaint 1
▁Ep 1
▁delicate 1
annonce 1
ext 1
▁quit 1
▁Cop 1
prop 1
365 1
▁Say 1
▁internationale 1
cott 1
▁Whatever 1
▁admir 1
▁bucur 1
▁entity 1
▁dancing 1
▁printre 1
▁meditation 1
▁avis 1
▁1988 1
10. 1
▁worker 1
▁$100 1
▁contrôle 1
▁insist 1
ements 1
izate 1
▁tied 1
▁correspond 1
▁apartments 1
▁2009. 1
▁tiles 1
▁boots 1
▁laundry 1
▁Coffee 1
▁CV 1
▁composed 1
atom 1
▁shore 1
▁marijuana 1
plic 1
▁Zahl 1
depth 1
▁Egypt 1
▁NFL 1
▁12, 1
▁pollution 1
▁Vergleich 1
û 1
▁nurse 1
▁Susan 1
▁verify 1
▁kon 1
▁ulei 1
▁Sept 1
▁Location 1
▁frozen 1
good 1
▁cine 1
forming 1
▁Near 1
▁Tab 1
▁Alexandr 1
ст 1
CK 1
▁loads 1
▁disorders 1
hip 1
▁blessing 1
▁vechi 1
▁Bookmark 1
SON 1
books 1
▁tropical 1
▁Garten 1
ôt 1
tures 1
▁obligation 1
▁admin 1
▁sélection 1
disp 1
▁Anyone 1
keeper 1
▁konnten 1
▁existe 1
▁Rund 1
▁retailers 1
folg 1
▁urmare 1
▁Liebe 1
▁actors 1
▁Druck 1
lien 1
sian 1
▁partid 1
▁loin 1
AZ 1
oasă 1
▁inclusiv 1
TD 1
▁anului 1
poc 1
▁musique 1
▁Hart 1
Sh 1
html 1
▁serial 1
țele 1
inning 1
▁Bureau 1
▁rush 1
▁deosebit 1
▁Wort 1
▁Thailand 1
▁Language 1
▁Governor 1
▁Later 1
rilor 1
▁activités 1
schaffen 1
▁harvest 1
▁municipal 1
einander 1
▁fingers 1
▁sculpture 1
▁Bien 1
▁departments 1
▁période 1
▁jeune 1
▁governments 1
uter 1
Aceste 1
▁Deal 1
▁Equipment 1
nous 1
▁gate 1
▁meta 1
▁stiu 1
fold 1
▁seule 1
▁varied 1
hit 1
▁DIY 1
▁lemn 1
OB 1
▁colorful 1
▁câ 1
▁semester 1
▁dealer 1
nett 1
▁shortly 1
▁Driver 1
culture 1
▁permitted 1
▁sorts 1
▁crop 1
▁valoare 1
▁analog 1
▁excuse 1
▁modèle 1
When 1
▁march 1
haz 1
▁minimize 1
traction 1
▁caracter 1
▁modules 1
clu 1
ţional 1
▁breach 1
▁priced 1
▁attorneys 1
▁implant 1
▁ANY 1
dition 1
▁trials 1
▁Nas 1
Pre 1
lorsque 1
plin 1
Er 1
▁Dom 1
▁tire 1
sili 1
▁coins 1
▁rend 1
▁reliability 1
▁Analysis 1
▁trails 1
trägt 1
▁Kansas 1
▁responsive 1
▁disappear 1
▁stakeholders 1
▁aplica 1
▁imi 1
▁Laura 1
▁Terms 1
450 1
▁voltage 1
▁Gel 1
▁qualities 1
▁qualifi 1
▁Mé 1
bereit 1
gleich 1
▁voting 1
▁trademark 1
▁2.5 1
ND 1
▁Kelly 1
▁weiteren 1
▁filters 1
▁coût 1
jur 1
acre 1
▁retired 1
▁Engine 1
▁président 1
ajul 1
▁GA 1
rät 1
▁instructor 1
▁Allen 1
▁Delhi 1
▁cure 1
seite 1
coming 1
▁mixing 1
▁Kno 1
▁Sure 1
▁hired 1
▁participated 1
Count 1
treffen 1
▁54 1
▁rings 1
▁Thor 1
éro 1
▁buttons 1
▁47 1
▁Tel 1
▁suport 1
▁rhythm 1
▁Theater 1
▁informatii 1
hält 1
▁ouvert 1
fewer 1
▁alumni 1
▁valley 1
tial 1
*** 1
kri 1
▁accidents 1
▁barrel 1
mobil 1
etti 1
▁immigration 1
▁poveste 1
hren 1
hydr 1
▁tweet 1
▁zip 1
▁Bonus 1
ordnung 1
liber 1
▁Navy 1
▁agreements 1
▁detection 1
DF 1
hur 1
0.00 1
▁07 1
etta 1
▁13, 1
rolled 1
▁injection 1
mig 1
wach 1
▁choisir 1
▁professionnels 1
▁Tower 1
▁neighbor 1
deutschen 1
▁luxurious 1
▁walks 1
reti 1
▁Pad 1
wise 1
▁exhaust 1
▁demonstration 1
▁agricultural 1
Upon 1
▁Blu 1
atorul 1
amour 1
issant 1
▁delighted 1
rita 1
requiring 1
ivity 1
▁Unser 1
FP 1
fait 1
dite 1
kul 1
arth 1
▁Ker 1
torilor 1
stage 1
▁HTML 1
▁Wheel 1
▁quelque 1
▁Ou 1
▁considerable 1
▁Sco 1
▁donations 1
dessen 1
▁pourquoi 1
▁Bow 1
▁Dupa 1
ska 1
hot 1
▁drove 1
▁oppos 1
▁hiking 1
▁Boot 1
One 1
▁guvern 1
▁15, 1
scheid 1
▁Miet 1
▁Technical 1
▁Dal 1
▁Metro 1
▁Baker 1
▁trece 1
tained 1
block 1
▁wander 1
▁penalty 1
▁shipped 1
▁30% 1
group 1
▁brothers 1
▁comanda 1
▁retreat 1
▁Movie 1
PU 1
▁Jun 1
▁$6 1
▁Fal 1
▁Palestinian 1
▁soccer 1
▁Autor 1
▁chamber 1
nement 1
▁offense 1
▁gig 1
▁abandon 1
▁Kraft 1
▁Medicare 1
▁soap 1
▁Fur 1
▁conditioning 1
rained 1
▁puts 1
▁cod 1
lassen 1
FL 1
▁komplett 1
▁entscheiden 1
▁Hour 1
?! 1
Stream 1
▁Grad 1
▁gently 1
▁poetry 1
▁secured 1
oph 1
hop 1
handel 1
▁besoins 1
got 1
▁Chrome 1
ILL 1
▁Schritt 1
▁spell 1
▁grinding 1
▁ramp 1
▁mama 1
▁bottles 1
▁canvas 1
▁ecosystem 1
aţii 1
cellular 1
▁Spin 1
▁Discover 1
-17 1
▁feeding 1
▁stops 1
▁haute 1
▁Entscheidung 1
▁semble 1
▁acele 1
▁Walk 1
▁joke 1
▁Fed 1
climat 1
▁Lot 1
runner 1
▁flip 1
▁werde 1
▁Deck 1
bala 1
▁sacrifice 1
cid 1
him 1
zahlen 1
▁heater 1
formed 1
plus 1
▁util 1
rama 1
(4) 1
▁knife 1
▁traditions 1
▁dip 1
kill 1
▁Rich 1
▁DI 1
▁containers 1
▁locuri 1
▁continent 1
teilung 1
▁vreme 1
organisation 1
serie 1
▁Diamond 1
magazin 1
▁poster 1
▁passenger 1
▁soldiers 1
▁urgent 1
▁Lip 1
▁aşa 1
▁BO 1
▁somebody 1
▁silence 1
cop 1
▁Burn 1
▁stopping 1
▁essence 1
▁hitting 1
▁producers 1
▁fibre 1
▁seasonal 1
▁tara 1
▁Jose 1
▁Better 1
▁steep 1
Alors 1
▁collecting 1
vre 1
▁disabled 1
▁voters 1
consuming 1
deemed 1
éra 1
opération 1
▁roller 1
Rather 1
▁leider 1
▁IV 1
▁erreichen 1
▁charging 1
tions 1
tiques 1
▁formats 1
▁painful 1
▁eager 1
generation 1
anna 1
▁races 1
force 1
▁ferm 1
▁breathing 1
▁offen 1
▁minds 1
▁musste 1
▁Vision 1
▁Installation 1
▁hesitate 1
▁somit 1
hôtel 1
cab 1
-16 1
▁Visual 1
intérêt 1
▁apel 1
therapy 1
volt 1
▁Rou 1
▁efficace 1
▁architectural 1
▁privilege 1
▁treating 1
▁Tam 1
tsch 1
building 1
▁associations 1
▁Consumer 1
▁Lim 1
newest 1
▁față 1
▁ships 1
lev 1
raft 1
▁variations 1
▁noua 1
▁Cab 1
1.2 1
▁ocazi 1
▁recommendation 1
titled 1
▁invoice 1
▁noastra 1
kur 1
issent 1
base 1
hä 1
888 1
▁declar 1
▁Football 1
▁Indeed 1
▁weapon 1
▁destroyed 1
▁enormous 1
▁blanket 1
▁aktiv 1
raw 1
▁computing 1
6) 1
▁Dam 1
▁confort 1
▁Gla 1
hardly 1
▁annually 1
▁destinations 1
▁guilty 1
▁scholarship 1
▁harmful 1
▁2-3 1
▁Race 1
▁hypo 1
▁shorter 1
quest 1
uze 1
izi 1
OO 1
▁Schutz 1
▁Teilnehmer 1
▁profiles 1
▁sustainability 1
▁emb 1
▁Augen 1
▁outdoors 1
▁Individual 1
▁pou 1
▁Together 1
HT 1
suited 1
▁tro 1
▁Strom 1
▁achievement 1
▁Range 1
tory 1
▁distribute 1
▁letzte 1
incorporated 1
▁Kir 1
ruf 1
▁disappointed 1
▁referral 1
flam 1
▁excessive 1
▁rapidement 1
▁Rio 1
aţia 1
▁meuble 1
▁2008. 1
▁Gall 1
▁française 1
▁ladies 1
ailed 1
El 1
▁wines 1
▁beispielsweise 1
▁gamme 1
▁guided 1
▁plin 1
Î 1
▁True 1
▁Temple 1
▁Pic 1
permalink 1
▁vedea 1
▁rank 1
▁Grill 1
clin 1
▁Hab 1
▁odds 1
▁anytime 1
▁Thanksgiving 1
guard 1
▁essays 1
▁PE 1
▁Rechts 1
mals 1
achi 1
▁Anthony 1
▁réponse 1
standing 1
▁Mol 1
▁Canon 1
▁silk 1
▁pourrait 1
▁raport 1
▁Woche 1
fallen 1
sting 1
▁circulation 1
▁skirt 1
▁Title 1
▁17. 1
▁Touch 1
▁utilizat 1
▁Organisation 1
▁mereu 1
▁oxygen 1
lique 1
▁consume 1
▁Barb 1
1.1 1
▁nicely 1
▁psychological 1
▁refrigerator 1
▁fantasy 1
▁dispute 1
▁IBM 1
▁Nation 1
▁mobil 1
▁density 1
ske 1
▁intimate 1
▁tailored 1
▁outline 1
TN 1
mur 1
GC 1
they 1
pag 1
▁Kultur 1
grün 1
voted 1
▁donné 1
▁Să 1
enberg 1
▁wi 1
▁Francis 1
▁Rick 1
accord 1
▁Zusammen 1
▁nonprofit 1
▁listings 1
6, 1
▁maximize 1
bud 1
▁promotional 1
cina 1
▁potatoes 1
▁mot 1
carries 1
▁stabilit 1
▁Door 1
▁downloaded 1
▁experimental 1
HD 1
▁parfois 1
▁zeigen 1
▁proposé 1
▁Verein 1
▁amestec 1
▁entreprise 1
▁PSD 1
▁bake 1
▁Rh 1
▁Mehr 1
▁purple 1
▁recipient 1
rare 1
egi 1
ancien 1
▁risque 1
▁mystery 1
mac 1
ibility 1
▁Moore 1
▁flavors 1
▁trauma 1
▁automotive 1
▁Anyway 1
▁simulation 1
▁crafts 1
▁measurements 1
▁cour 1
▁tard 1
nnie 1
▁Production 1
▁Cleaning 1
5, 1
▁Islamic 1
▁Gate 1
bay 1
HR 1
▁Offer 1
▁acceptance 1
▁Erfahrung 1
▁environ 1
▁fancy 1
▁bullet 1
organ 1
▁Peace 1
▁detalii 1
▁promised 1
▁wellness 1
▁satisfy 1
▁grants 1
accueil 1
▁oben 1
▁prospects 1
▁Events 1
2013 1
gesehen 1
▁£1 1
▁handelt 1
▁Spieler 1
▁Virtual 1
▁bubble 1
▁Trend 1
▁sistemul 1
▁Morgan 1
▁pole 1
▁spielen 1
tür 1
SCO 1
▁informative 1
▁affirm 1
▁Aqua 1
▁AR 1
richten 1
▁rewards 1
lub 1
shot 1
LM 1
Up 1
▁absolut 1
▁Mart 1
erweise 1
BP 1
▁difficile 1
▁Document 1
▁Sweet 1
▁indicator 1
▁Boden 1
mates 1
▁supporters 1
▁begun 1
▁blogging 1
▁CL 1
gres 1
▁preferences 1
▁screw 1
▁tutor 1
▁Additional 1
▁Bitte 1
utilizing 1
▁expérience 1
▁dur 1
▁precisely 1
▁janvier 1
AGE 1
moto 1
▁counsel 1
▁110 1
nick 1
licit 1
technik 1
▁collaborate 1
▁neighbors 1
tered 1
▁excel 1
▁Route 1
steuer 1
▁pioneer 1
nuit 1
▁skip 1
▁destruction 1
▁thesis 1
▁libre 1
▁petition 1
▁steady 1
▁medications 1
▁audiences 1
▁coaches 1
aller 1
3,000 1
▁anger 1
▁striking 1
▁shades 1
▁Sitz 1
▁gluten 1
▁egal 1
ania 1
▁defend 1
gut 1
▁reserves 1
▁advocate 1
▁Cit 1
▁technicians 1
▁cater 1
leitung 1
▁towns 1
▁Costa 1
▁confront 1
mount 1
▁nationale 1
▁adverse 1
▁couleur 1
▁delight 1
▁promises 1
▁silent 1
richtet 1
▁Companies 1
▁Charlotte 1
▁labels 1
▁Süd 1
▁Honor 1
▁complaints 1
▁siècle 1
▁suits 1
▁Bath 1
mise 1
▁acela 1
▁candidat 1
Flo 1
▁conservative 1
DD 1
▁changement 1
▁login 1
▁Fashion 1
reichen 1
through 1
aki 1
gna 1
▁verse 1
▁threats 1
▁Song 1
▁funded 1
langen 1
▁distribu 1
édition 1
▁royal 1
▁bevor 1
▁02 1
straße 1
edit 1
▁energetic 1
▁Carr 1
viol 1
▁niche 1
avais 1
▁backyard 1
▁Saudi 1
▁Zwei 1
▁Legal 1
accessed 1
▁choisi 1
▁GDP 1
oferă 1
hlen 1
▁Wor 1
▁cheer 1
▁barely 1
cost 1
▁Really 1
kol 1
▁binding 1
euer 1
▁optimization 1
▁Designer 1
▁measuring 1
ncy 1
weise 1
DER 1
▁$7 1
▁Anfang 1
material 1
▁antique 1
▁Certificate 1
▁modest 1
ției 1
▁praise 1
▁Springs 1
▁organiza 1
jurul 1
▁plumbing 1
▁foster 1
▁Wy 1
▁Sab 1
▁overwhelming 1
▁matin 1
▁responded 1
▁confused 1
▁blessed 1
▁160 1
▁ingredient 1
▁confer 1
▁Gesundheit 1
▁bucket 1
kraft 1
lange 1
▁Kopf 1
▁Prize 1
▁authorized 1
▁tick 1
▁steal 1
Depending 1
Depuis 1
▁functie 1
▁developments 1
▁Christians 1
▁calculated 1
▁Leave 1
▁Jam 1
▁habitat 1
▁Sorry 1
▁oficial 1
▁allein 1
▁concentrate 1
dica 1
▁Convention 1
illes 1
▁fum 1
▁Tal 1
Europe 1
▁attachment 1
▁sensibil 1
▁clue 1
▁specialty 1
▁Cou 1
▁liste 1
▁Penn 1
TRA 1
▁Themen 1
▁motivated 1
▁camere 1
▁14, 1
▁attendance 1
atorii 1
chemistry 1
▁roofing 1
▁Links 1
▁trou 1
▁trucks 1
hilfe 1
▁(6 1
vapor 1
mad 1
▁Albert 1
▁FIG 1
▁Rand 1
▁Constitution 1
ambi 1
▁Syria 1
▁Fond 1
▁gouvernement 1
▁Active 1
▁prints 1
▁weigh 1
▁Craft 1
▁projets 1
▁paste 1
anci 1
kie 1
▁gains 1
▁Record 1
▁beliefs 1
countless 1
▁tomatoes 1
arie 1
▁140 1
▁ethical 1
objectif 1
▁acestuia 1
▁Bluetooth 1
▁agriculture 1
uré 1
▁cale 1
▁articol 1
▁gum 1
▁vendor 1
ifié 1
▁peer 1
pod 1
▁utilized 1
▁Mü 1
owohl 1
hilst 1
frame 1
▁fridge 1
▁query 1
▁Survey 1
▁Hell 1
▁notification 1
TR 1
▁ultima 1
▁radiation 1
▁musicians 1
CAN 1
▁grocery 1
▁Sicherheit 1
▁Highway 1
▁Break 1
TED 1
ön 1
▁biological 1
qual 1
250 1
▁modify 1
▁Hit 1
▁Iar 1
aged 1
...) 1
▁contrat 1
▁centres 1
griff 1
Our 1
▁determination 1
▁variables 1
▁nuts 1
échange 1
extérieur 1
▁suflet 1
▁Scha 1
stück 1
▁Tau 1
▁participa 1
▁mad 1
▁relie 1
▁Fine 1
▁grape 1
▁wage 1
▁startup 1
▁blank 1
▁physique 1
▁punch 1
▁contacts 1
▁dezvolt 1
cross 1
▁TR 1
▁gener 1
▁indem 1
▁Stan 1
▁azi 1
▁Sel 1
▁Tot 1
vra 1
▁recruit 1
▁Yeah 1
/10 1
▁nail 1
▁Ky 1
▁beloved 1
operative 1
▁Tickets 1
▁tear 1
▁amp 1
▁04 1
▁illustrate 1
▁mac 1
▁receiver 1
atrice 1
▁souhait 1
▁Gewinn 1
▁Vit 1
roch 1
▁arata 1
▁Indiana 1
child 1
▁invested 1
▁Excellent 1
gori 1
▁thermal 1
Str 1
▁liver 1
miss 1
▁utiliser 1
▁prest 1
2016 1
isée 1
▁Index 1
▁arch 1
▁Toyota 1
▁YOUR 1
▁Mexican 1
▁gegenüber 1
▁cannabis 1
bis 1
vage 1
hall 1
fax 1
▁spoken 1
▁Zimmer 1
kauf 1
▁couleurs 1
▁NJ 1
▁Heritage 1
▁Pflege 1
luc 1
▁56 1
VP 1
▁cuvinte 1
▁Alliance 1
▁coco 1
▁leverage 1
auch 1
▁Cart 1
taux 1
east 1
▁decorating 1
tip 1
▁Communications 1
ACE 1
▁Consul 1
▁Swiss 1
inci 1
▁Fact 1
▁ajung 1
▁airline 1
▁kidney 1
▁Records 1
▁Olympic 1
▁dried 1
oivent 1
▁Adobe 1
▁powers 1
lande 1
▁relieve 1
ţine 1
▁gradually 1
mud 1
▁30, 1
▁plante 1
▁Hug 1
▁Focus 1
▁distinctive 1
▁Bab 1
tata 1
▁Nun 1
▁Eve 1
▁déc 1
▁Beitrag 1
▁devenit 1
driven 1
▁offerings 1
▁exc 1
encies 1
▁Neuro 1
scher 1
map 1
pending 1
▁courage 1
axe 1
▁Gesellschaft 1
▁ears 1
▁aider 1
▁Cast 1
fast 1
▁departe 1
▁oak 1
▁batch 1
▁Corporate 1
▁Ost 1
-14 1
▁Pie 1
▁ranking 1
clusion 1
▁costume 1
▁Knight 1
▁privat 1
▁Engineer 1
▁gens 1
physics 1
generating 1
directement 1
▁confidential 1
▁poet 1
▁monster 1
▁suppose 1
său 1
▁balls 1
▁substitute 1
▁simultaneously 1
▁specify 1
wald 1
▁collapse 1
dessus 1
▁vitr 1
▁recruitment 1
denken 1
▁candy 1
▁tourists 1
dimensional 1
conce 1
wechsel 1
▁passende 1
industrie 1
agne 1
▁warehouse 1
▁Jugend 1
▁Weise 1
▁Zone 1
▁licence 1
▁broker 1
▁Rolle 1
pton 1
▁preference 1
▁homeowners 1
▁Lum 1
▁Chairman 1
▁Pages 1
▁beam 1
▁coordinate 1
▁Tool 1
▁complexity 1
▁checks 1
▁Bedroom 1
minded 1
▁copiii 1
▁celebrating 1
zimmer 1
▁Imagine 1
▁decoration 1
team 1
▁împreună 1
▁publicly 1
▁centuries 1
▁Islands 1
▁ethnic 1
still 1
stieg 1
emia 1
tags 1
▁marche 1
▁migration 1
▁banner 1
▁macro 1
▁Edit 1
tran 1
ça 1
▁recycling 1
▁1,000 1
▁Quelle 1
▁Vel 1
▁Rit 1
▁Spaß 1
▁Corn 1
tracted 1
cited 1
▁tablets 1
▁Display 1
▁persoana 1
Term 1
▁Vancouver 1
▁Gäste 1
determining 1
▁populations 1
aison 1
▁surgical 1
tale 1
ivi 1
▁Zur 1
esprit 1
▁Edge 1
dach 1
phi 1
▁suc 1
▁scrie 1
▁Ausbildung 1
▁51 1
ologi 1
▁correction 1
▁Wald 1
▁additionally 1
▁proche 1
▁classical 1
▁bringen 1
▁(10 1
▁Mile 1
lace 1
▁premi 1
▁constitute 1
▁bitter 1
▁Inform 1
▁corporations 1
▁Lisa 1
▁obligat 1
Throughout 1
▁Rs 1
▁Hair 1
▁supplements 1
▁motorcycle 1
escent 1
▁investi 1
▁continuously 1
▁Essen 1
▁precision 1
▁deficit 1
▁wallet 1
▁Bürger 1
chir 1
9) 1
▁Programme 1
▁simplement 1
MD 1
▁rouge 1
usion 1
▁stove 1
▁prospective 1
▁corp 1
▁impacts 1
▁bride 1
0.0 1
hid 1
▁warrant 1
▁Ice 1
▁sensible 1
▁vreo 1
spekt 1
▁appreciation 1
▁automation 1
Luc 1
teaches 1
▁fold 1
deutsche 1
▁assisted 1
▁straightforward 1
▁mechanic 1
observ 1
▁Schau 1
▁Recently 1
kers 1
▁Soft 1
muni 1
▁lie 1
▁Fat 1
cream 1
▁snack 1
▁juin 1
▁competent 1
▁Drug 1
▁Row 1
▁needle 1
▁convey 1
▁voie 1
▁Hon 1
▁ebook 1
▁veteran 1
▁statistical 1
190 1
▁munca 1
▁venues 1
▁Viel 1
▁décor 1
▁répond 1
▁produsele 1
ruc 1
▁drops 1
▁autant 1
▁Fahrzeug 1
▁hills 1
ference 1
▁Glück 1
▁Pac 1
▁permettr 1
▁mouvement 1
établissement 1
▁Parc 1
▁solving 1
▁jail 1
▁junk 1
▁jeux 1
▁rôle 1
▁cache 1
▁Answer 1
wir 1
option 1
▁Tiger 1
▁Ble 1
Mitglied 1
▁partial 1
▁Mercedes 1
tire 1
MENT 1
▁transit 1
▁cineva 1
▁Andrea 1
▁boundaries 1
script 1
▁Medi 1
schreiben 1
▁lobby 1
▁defendant 1
▁sq 1
▁forgotten 1
stimmung 1
hus 1
RY 1
▁Anderson 1
▁Dental 1
ject 1
▁Nutzer 1
▁Portland 1
scription 1
▁angel 1
▁monument 1
▁număr 1
▁Lane 1
▁Bai 1
But 1
▁calculate 1
▁provoca 1
▁votes 1
RNA 1
though 1
spor 1
▁connaissance 1
▁Anwendung 1
▁Kate 1
lob 1
▁Conf 1
bung 1
ander 1
▁functioning 1
▁sponsored 1
rav 1
▁resistant 1
tră 1
▁costly 1
▁Mars 1
▁tir 1
▁writes 1
▁Greg 1
▁Question 1
▁corporation 1
▁lire 1
locked 1
8, 1
▁sagt 1
gaining 1
▁Pierre 1
verb 1
▁Barcelona 1
werte 1
▁disponible 1
▁urge 1
▁expecting 1
▁Girl 1
▁unlimited 1
watt 1
▁Möglichkeiten 1
▁schöne 1
rium 1
That 1
▁socio 1
▁Democrats 1
guten 1
▁Lou 1
ităţi 1
▁possibilité 1
▁adjustable 1
▁Salt 1
Thr 1
▁biseric 1
ieux 1
▁procur 1
▁credits 1
▁Netflix 1
doi 1
▁Jews 1
▁Ukraine 1
▁adevărat 1
▁Apply 1
▁coupons 1
▁Detroit 1
▁rue 1
anumite 1
ished 1
▁withdrawal 1
▁replacing 1
catching 1
▁climbing 1
▁Basic 1
▁inclus 1
scope 1
▁facem 1
▁plec 1
mäßig 1
▁tasty 1
▁tunnel 1
figured 1
gged 1
▁conditii 1
▁homework 1
volle 1
▁Gott 1
▁95 1
▁elect 1
▁blast 1
▁easiest 1
USE 1
concentr 1
orial 1
▁scroll 1
stead 1
▁hormone 1
▁starter 1
▁cald 1
▁wax 1
▁ridic 1
ously 1
maschine 1
licher 1
▁16, 1
▁hassle 1
semnat 1
▁pub 1
240 1
▁kits 1
▁Generation 1
▁merchant 1
▁Erd 1
▁café 1
hoff 1
▁WITH 1
▁gesch 1
▁Editor 1
▁treats 1
▁harsh 1
rome 1
▁Foreign 1
▁denied 1
▁Valentine 1
▁healthier 1
▁readily 1
nac 1
▁intake 1
▁puncte 1
erne 1
file 1
▁continually 1
door 1
▁imediat 1
▁accused 1
chy 1
▁wrapped 1
IES 1
▁terrace 1
mouth 1
▁defensive 1
▁Luci 1
▁significance 1
▁2007, 1
▁inclusion 1
▁rotation 1
hos 1
▁crea 1
üß 1
▁Install 1
▁dump 1
▁informations 1
▁Thi 1
▁85 1
dox 1
track 1
▁couples 1
▁Assembly 1
wagen 1
▁Hil 1
ières 1
▁Gabriel 1
▁patience 1
▁colored 1
▁separately 1
▁deployment 1
scape 1
▁Acum 1
▁länger 1
▁screens 1
▁prezenta 1
▁obicei 1
▁crisp 1
▁mechanisms 1
▁thirty 1
▁individually 1
▁internationally 1
lling 1
▁bureau 1
▁erfahren 1
TY 1
PF 1
wid 1
sell 1
▁Luke 1
▁Must 1
▁identical 1
▁Netherlands 1
▁investor 1
▁squad 1
▁21, 1
iko 1
▁departure 1
ega 1
uzi 1
▁lasa 1
bian 1
▁Madrid 1
▁Iowa 1
▁Yellow 1
conom 1
▁hint 1
NOW 1
dress 1
▁Stück 1
echt 1
rial 1
▁Initiative 1
▁magnificent 1
▁pipeline 1
▁08 1
▁écrit 1
KA 1
arile 1
▁unfortunately 1
dose 1
▁counts 1
deciding 1
WA 1
▁doresc 1
NY 1
olin 1
▁Urlaub 1
▁alătur 1
▁Vic 1
▁fier 1
EU 1
▁triple 1
▁compliment 1
▁vegetable 1
member 1
atiei 1
▁toxic 1
▁converted 1
▁Pink 1
▁fragment 1
presenting 1
▁garantie 1
▁31, 1
▁puisqu 1
aching 1
▁Shan 1
▁Affairs 1
üsse 1
▁CBD 1
▁quatre 1
▁horror 1
▁culoare 1
▁welcoming 1
▁headache 1
▁septembre 1
▁Tür 1
lateral 1
▁termin 1
▁Aid 1
second 1
▁Philip 1
berries 1
▁Slot 1
ка 1
▁consecutive 1
value 1
▁islands 1
▁posibilitatea 1
0.5 1
▁Dumpster 1
▁Gran 1
▁restricted 1
▁discussing 1
cock 1
Serie 1
▁crushing 1
RB 1
▁Gy 1
normal 1
DT 1
▁concurs 1
▁Beratung 1
▁handful 1
▁loading 1
▁WI 1
▁Fitness 1
▁RAM 1
▁Twi 1
adurch 1
▁obiectiv 1
BM 1
▁amendment 1
whi 1
▁Besonder 1
ALL 1
▁earning 1
▁nutrients 1
pru 1
▁offensive 1
▁shelves 1
▁încâ 1
▁execute 1
▁cauz 1
exist 1
▁Meter 1
there 1
▁réaliser 1
blog 1
▁résultats 1
baren 1
▁lang 1
▁mere 1
▁toti 1
DN 1
Hi 1
▁merg 1
▁Camera 1
▁parfum 1
CG 1
posed 1
▁proposals 1
▁incorrect 1
▁Denver 1
▁noapte 1
▁VPN 1
▁Oklahoma 1
horizon 1
▁villa 1
duce 1
Dienst 1
▁oversee 1
astr 1
brand 1
▁Safe 1
▁competing 1
▁subiect 1
▁équipe 1
▁Dress 1
▁Juni 1
▁repeated 1
2012 1
▁départ 1
immer 1
▁mondial 1
▁datelor 1
▁surgeon 1
▁demanding 1
▁concluded 1
țiile 1
marin 1
▁estim 1
▁Loan 1
sculpt 1
▁99 1
void 1
▁Empire 1
▁Brit 1
▁véhicule 1
▁dividend 1
▁refused 1
▁speaks 1
▁Morris 1
dict 1
▁funeral 1
▁Behandlung 1
▁Revolution 1
▁Sum 1
einigen 1
RES 1
▁vite 1
▁Captain 1
▁assurance 1
uga 1
▁conserv 1
▁therapeutic 1
▁Sweden 1
▁Lead 1
ément 1
▁53 1
▁fraction 1
▁magnet 1
assurer 1
▁Steuer 1
▁flori 1
▁charming 1
▁athletic 1
▁membri 1
▁Sep 1
ogue 1
▁familie 1
▁SW 1
▁diagnosed 1
RR 1
▁Fern 1
▁rational 1
▁talents 1
ziert 1
▁chemin 1
sheet 1
▁outer 1
▁Kap 1
▁HERE 1
▁uman 1
▁accompany 1
▁varieties 1
▁sensors 1
▁25% 1
▁tray 1
▁critique 1
▁puţin 1
▁Schüler 1
▁repar 1
▁overlook 1
▁surf 1
▁tasting 1
bog 1
▁Payment 1
▁Helen 1
▁Refer 1
application 1
lection 1
▁avril 1
▁Grace 1
▁kau 1
▁libraries 1
▁closest 1
▁coating 1
▁suicide 1
▁undergraduate 1
▁stitch 1
▁reset 1
▁Greece 1
▁Fred 1
▁18. 1
▁nuit 1
▁lying 1
▁cottage 1
bone 1
▁milieu 1
management 1
▁Freund 1
▁specially 1
veut 1
▁necesare 1
▁cert 1
articul 1
150 1
rounded 1
▁longue 1
▁Quel 1
Until 1
▁700 1
▁installations 1
▁boats 1
Fig 1
▁cocktail 1
▁rocks 1
meinen 1
entrepreneur 1
schwarz 1
▁diesel 1
▁villages 1
▁cups 1
▁stairs 1
▁Match 1
Taking 1
prin 1
▁penal 1
partner 1
wave 1
▁baie 1
LAN 1
fix 1
▁surveillance 1
▁Register 1
oara 1
▁Phoenix 1
aktuellen 1
▁livres 1
▁entities 1
▁Regard 1
▁Jazz 1
▁flame 1
▁independence 1
▁Adventure 1
▁assign 1
▁Adult 1
kehr 1
▁ordering 1
▁charts 1
▁Român 1
bauen 1
▁Floor 1
▁Meet 1
▁compromise 1
regarded 1
02. 1
▁granite 1
▁Judge 1
opti 1
liste 1
▁capacité 1
▁criticism 1
LES 1
▁Century 1
▁mobility 1
▁variation 1
▁Utah 1
▁seminar 1
▁experiments 1
midst 1
▁Psycho 1
▁choses 1
▁Karl 1
▁ruling 1
▁Voice 1
▁împotriv 1
▁mesaj 1
▁vrei 1
fan 1
parent 1
▁oraș 1
▁printable 1
▁diver 1
▁ochi 1
▁teenager 1
▁Death 1
▁manque 1
ască 1
▁prob 1
▁télé 1
cursul 1
pion 1
▁dedication 1
▁opr 1
führung 1
▁cognitive 1
soft 1
▁19, 1
▁24- 1
▁legitimate 1
▁comedy 1
▁violation 1
▁disposal 1
▁liegen 1
ко 1
▁martie 1
▁Vas 1
rash 1
▁hadn 1
▁connu 1
▁regelmäßig 1
▁Webseite 1
▁failing 1
explique 1
▁Player 1
vul 1
camp 1
▁erreicht 1
▁tags 1
▁headline 1
▁banc 1
▁Mayor 1
trop 1
AK 1
▁lighter 1
▁syndrome 1
▁Adrian 1
▁EUR 1
▁Missouri 1
▁Chan 1
topped 1
▁nationwide 1
▁6- 1
final 1
ttes 1
▁FO 1
▁legi 1
▁Hum 1
vita 1
▁Regen 1
▁confusion 1
▁valori 1
mill 1
did 1
pid 1
▁implications 1
▁Value 1
lângă 1
▁véritable 1
▁Stick 1
zol 1
▁ebenso 1
west 1
▁auszu 1
▁adorable 1
▁clarity 1
▁Wash 1
▁alien 1
usement 1
▁bones 1
▁Beau 1
▁Jet 1
▁visibility 1
impose 1
food 1
▁duce 1
▁Format 1
▁durability 1
▁Prim 1
▁mele 1
▁dürfen 1
▁Angebote 1
▁discharge 1
▁Justin 1
▁shame 1
▁heated 1
ères 1
human 1
4.5 1
▁lien 1
▁Alan 1
▁transmis 1
▁Bul 1
plu 1
acul 1
merk 1
▁altfel 1
deli 1
▁Cru 1
▁hommes 1
aurait 1
cca 1
▁Path 1
astronom 1
▁détail 1
▁blocked 1
iding 1
schä 1
▁30- 1
diction 1
▁pulling 1
▁Sample 1
▁renewable 1
▁Pinterest 1
▁Tages 1
▁shed 1
▁hart 1
▁serie 1
▁documentary 1
gebaut 1
▁Hause 1
share 1
▁inflation 1
▁gall 1
▁adjacent 1
jer 1
▁Universal 1
▁disabilities 1
▁proposition 1
Work 1
▁closure 1
▁separated 1
▁soda 1
▁elite 1
appro 1
▁acute 1
utton 1
▁facă 1
▁collector 1
▁unlock 1
▁Alpha 1
▁Used 1
▁applicants 1
▁înseamn 1
▁inclu 1
▁disclosure 1
▁Fahr 1
AST 1
▁vivre 1
», 1
laud 1
▁soir 1
▁barrier 1
înd 1
▁ambition 1
asta 1
occupied 1
▁Gau 1
four 1
▁nap 1
iez 1
endra 1
gaben 1
▁Carol 1
▁Switzerland 1
▁Bond 1
▁crossing 1
▁Palace 1
NG 1
▁Budget 1
▁lid 1
bab 1
▁polish 1
▁herbs 1
▁dear 1
▁devrai 1
walk 1
▁humanity 1
▁tires 1
égal 1
▁bow 1
▁debris 1
▁keywords 1
irk 1
▁suspend 1
▁pourra 1
migran 1
thereby 1
▁Harris 1
ateurs 1
▁fal 1
alleged 1
noch 1
▁observation 1
▁București 1
▁SQL 1
▁Phase 1
▁adventures 1
▁Kol 1
▁professionnel 1
crit 1
LR 1
▁preview 1
▁highlighted 1
▁Stud 1
▁labour 1
MV 1
click 1
approche 1
tian 1
cité 1
▁Rain 1
typ 1
Usually 1
▁outlet 1
logging 1
▁Temperatur 1
▁Scottish 1
iga 1
▁glory 1
▁Rom 1
zeug 1
establishing 1
▁imaging 1
▁Beauty 1
igan 1
après 1
Adresse 1
cliff 1
▁unnecessary 1
▁slim 1
dir 1
▁leisure 1
▁principale 1
▁Viele 1
▁2007. 1
Hopefully 1
cola 1
▁Planet 1
▁orientation 1
▁angry 1
MIT 1
▁Kenya 1
▁bless 1
▁Fill 1
▁compar 1
▁curtain 1
ţei 1
▁Az 1
▁Rang 1
▁dominant 1
race 1
▁Target 1
▁manually 1
objet 1
thrown 1
NF 1
durant 1
rect 1
▁Größe 1
VM 1
▁aprilie 1
▁Welche 1
▁verde 1
▁Portugal 1
▁algorithm 1
ăț 1
▁Grey 1
▁cleaned 1
▁modes 1
▁relaxation 1
mbr 1
étique 1
Her 1
▁beta 1
▁nobody 1
▁aplic 1
present 1
emis 1
éléments 1
▁lately 1
fab 1
▁aluminiu 1
▁vest 1
▁statue 1
▁publice 1
▁merchandise 1
▁relat 1
git 1
▁interne 1
▁Tokyo 1
chal 1
contacted 1
▁tras 1
▁Clinic 1
▁unbe 1
▁dumneavoastra 1
float 1
isson 1
▁vessel 1
attempting 1
▁doute 1
▁Leadership 1
▁sustain 1
▁textile 1
auer 1
▁90% 1
garten 1
▁adauga 1
▁Kil 1
▁troops 1
▁pale 1
host 1
▁cry 1
▁Alb 1
▁Brad 1
▁bicycle 1
▁24/7 1
▁с 1
▁stimul 1
gler 1
▁notwendig 1
▁cousin 1
cheie 1
hay 1
▁rezolv 1
▁THIS 1
ordre 1
iști 1
▁conclude 1
▁Lage 1
▁Entertainment 1
▁valued 1
ktion 1
▁priorities 1
▁1986 1
▁fatal 1
▁accurately 1
▁1987 1
▁folk 1
7) 1
führer 1
▁knot 1
haltung 1
▁Charlie 1
âge 1
▁threshold 1
▁assault 1
▁meist 1
bine 1
surprisingly 1
▁Protect 1
▁Hack 1
▁Quant 1
▁Cet 1
▁convinced 1
▁muncă 1
dging 1
▁Millionen 1
zahlung 1
▁anticipated 1
▁brass 1
KO 1
▁culori 1
▁Aero 1
▁intermediu 1
▁Philippines 1
▁jury 1
▁Funktion 1
▁probe 1
TL 1
1.0 1
ELL 1
She 1
▁Blood 1
▁Dean 1
▁scène 1
volu 1
▁Epi 1
▁séjour 1
▁Smartphone 1
▁fired 1
beat 1
▁pockets 1
▁serviciu 1
▁affairs 1
▁Ry 1
▁Stadium 1
▁snacks 1
▁efectu 1
▁Richtung 1
▁dresses 1
▁Medien 1
writer 1
changing 1
▁supportive 1
▁beneath 1
paid 1
▁customize 1
▁Ferr 1
reaches 1
arma 1
ción 1
▁elderly 1
▁modification 1
▁perfection 1
▁Allow 1
▁belonging 1
▁compound 1
▁Results 1
▁astăzi 1
▁Liber 1
jor 1
▁Nin 1
▁lumina 1
▁130 1
▁Platform 1
▁SMS 1
▁medic 1
hör 1
▁Kas 1
▁tomato 1
▁logiciel 1
php 1
▁premises 1
▁Communication 1
▁reprezintă 1
▁Partners 1
▁RV 1
▁pants 1
▁envie 1
▁commerce 1
▁tears 1
▁cooler 1
strand 1
▁Gil 1
▁référence 1
▁electronics 1
exposition 1
▁Caribbean 1
▁compelling 1
luci 1
▁Brooklyn 1
▁Thai 1
dler 1
▁supra 1
centered 1
▁metro 1
▁03 1
▁enrich 1
▁adevarat 1
5000 1
▁bell 1
▁sine 1
▁appealing 1
clam 1
▁vorhanden 1
▁pickup 1
▁Alaska 1
▁Nacht 1
borough 1
▁Blanc 1
▁apare 1
▁Works 1
mettent 1
atter 1
terra 1
▁Bit 1
RL 1
▁Wander 1
▁Hawk 1
▁Probleme 1
regel 1
hne 1
fass 1
▁Andy 1
▁befinde 1
boo 1
▁connectivity 1
▁spielt 1
zweiten 1
ţilor 1
▁confi 1
▁schlecht 1
▁Beginn 1
▁floating 1
nimmt 1
▁arbeiten 1
pillar 1
sterreich 1
▁Schule 1
▁durée 1
▁honestly 1
▁acel 1
▁Prozess 1
Min 1
enii 1
DAY 1
▁Blo 1
▁bolt 1
sicher 1
▁17, 1
▁anchor 1
▁consistency 1
▁relatives 1
▁lac 1
105 1
▁Craig 1
▁mandate 1
▁bedeutet 1
▁Soviet 1
▁arguments 1
▁Gebäude 1
▁Parliament 1
▁Kha 1
nica 1
▁Amazing 1
gründe 1
▁Ott 1
Exp 1
▁ianuarie 1
riot 1
▁futur 1
▁Honda 1
!!!! 1
▁citit 1
▁22, 1
țional 1
▁lovers 1
▁Current 1
▁drone 1
▁promising 1
devoted 1
▁Born 1
▁viitor 1
▁ritual 1
▁Guard 1
09. 1
▁Py 1
▁finds 1
▁boli 1
▁Mitglieder 1
ogni 1
▁stones 1
rox 1
▁dock 1
▁onion 1
▁classified 1
big 1
RG 1
influenced 1
▁sudden 1
▁ample 1
án 1
▁ornament 1
datele 1
▁Dad 1
BER 1
gerecht 1
kett 1
▁Antonio 1
Nu 1
dium 1
CAD 1
▁bundle 1
▁Vari 1
▁thrive 1
▁Seminar 1
wire 1
▁contributing 1
▁Bour 1
▁dori 1
▁packing 1
▁colleges 1
▁garbage 1
▁vector 1
▁suggestion 1
borne 1
▁Listen 1
▁Prix 1
viennent 1
insbesondere 1
▁fonctionne 1
▁mainstream 1
▁merci 1
oko 1
▁Commerce 1
▁droits 1
▁muzica 1
▁profesor 1
▁epic 1
▁intuitive 1
▁aggregate 1
▁vaccine 1
▁dank 1
▁situ 1
▁Cand 1
▁Ganz 1
▁Crystal 1
▁discretion 1
mug 1
▁anzu 1
▁cement 1
▁priest 1
▁rejected 1
▁Summit 1
▁Sara 1
▁palette 1
▁continuare 1
uge 1
ryl 1
▁Solid 1
▁meilleure 1
▁Tennessee 1
rail 1
▁attributes 1
▁vessels 1
cylinder 1
▁parfait 1
abb 1
▁Julie 1
▁pièces 1
▁proiecte 1
médi 1
▁décembre 1
Per 1
1/ 1
regulated 1
▁Dy 1
▁23, 1
beck 1
tură 1
▁Chiar 1
▁isolated 1
▁kennen 1
Du 1
reflected 1
▁belong 1
▁welcomed 1
▁Rate 1
prestigious 1
▁1/4 1
▁distinction 1
▁boring 1
▁booked 1
▁citizen 1
▁comprises 1
▁aufge 1
GL 1
▁nearest 1
▁printr 1
▁département 1
▁planner 1
▁Rai 1
▁Broad 1
▁pastor 1
▁reservation 1
▁decembrie 1
▁suficient 1
geld 1
training 1
deshalb 1
▁chaud 1
Cor 1
▁Grade 1
▁faţă 1
story 1
gericht 1
▁Got 1
particulièrement 1
▁bump 1
▁fatigue 1
Activ 1
▁numéro 1
▁stranger 1
▁Skin 1
add 1
Ainsi 1
▁assists 1
▁zusätzlich 1
▁vede 1
RON 1
▁seemingly 1
▁NU 1
geb 1
▁Release 1
▁throwing 1
▁Alabama 1
▁Something 1
▁Cuba 1
▁Verbindung 1
▁Cir 1
your 1
-13 1
▁Delta 1
▁Twin 1
▁governance 1
▁groom 1
▁conception 1
▁governor 1
▁Spar 1
▁coastal 1
▁Seven 1
▁inclusive 1
cili 1
▁Ridge 1
teller 1
▁Kin 1
leiter 1
stern 1
change 1
▁presidential 1
▁composer 1
Stu 1
▁Frankfurt 1
prä 1
▁Ideal 1
▁linear 1
▁bloom 1
▁grades 1
mettant 1
▁finishes 1
holz 1
▁dirty 1
▁Roh 1
▁Praxis 1
tempo 1
▁attempted 1
▁primar 1
▁pomp 1
▁tolle 1
▁adres 1
▁Between 1
▁ruin 1
▁matériel 1
MER 1
Nevertheless 1
▁corruption 1
spire 1
▁mou 1
ROM 1
▁underground 1
▁relativ 1
waited 1
▁speeds 1
▁adjusted 1
▁Flat 1
UND 1
▁individuelle 1
▁anybody 1
EO 1
-> 1
▁Spend 1
aktion 1
édit 1
▁quest 1
rind 1
▁mediu 1
▁barriers 1
▁répondre 1
▁novembre 1
▁champ 1
saw 1
▁fed 1
▁favorites 1
▁shield 1
▁Wide 1
▁problema 1
▁Asta 1
▁refreshing 1
hey 1
obtaining 1
▁parler 1
▁Cele 1
frage 1
écran 1
▁cleared 1
zehn 1
parmi 1
änder 1
▁Defense 1
tatea 1
▁reasonably 1
▁Idee 1
nehm 1
technologie 1
atura 1
▁slope 1
Hence 1
▁40% 1
▁jewe 1
▁queries 1
▁$8 1
▁Parker 1
▁publique 1
quant 1
issue 1
▁Cleveland 1
4,000 1
IDE 1
▁Barbara 1
udge 1
corn 1
veți 1
▁proteins 1
▁trăi 1
▁mijloc 1
logie 1
▁Walter 1
heißt 1
search 1
▁hochwertige 1
▁încerc 1
▁administrator 1
tension 1
▁homemade 1
▁$20 1
▁leben 1
netz 1
▁intensity 1
▁clever 1
▁installer 1
▁Wand 1
meister 1
ziel 1
▁architect 1
▁crede 1
▁Sleep 1
▁demonstr 1
cake 1
▁Cheap 1
pool 1
▁gadget 1
▁Anbieter 1
▁Jonathan 1
ül 1
▁Harvard 1
▁1985 1
HP 1
▁afara 1
▁halten 1
▁Technik 1
▁dressed 1
weis 1
▁donated 1
also 1
▁EN 1
▁imprim 1
▁onions 1
Par 1
▁donate 1
▁mice 1
referring 1
▁restored 1
▁amateur 1
▁Switch 1
appel 1
▁idéal 1
▁wheat 1
▁lime 1
REA 1
riti 1
ţiile 1
▁machinery 1
UNE 1
▁Cont 1
▁attendees 1
▁aparat 1
freundlich 1
▁zilnic 1
▁spark 1
▁Gast 1
▁Issue 1
▁scam 1
▁bonds 1
owner 1
▁empfehlen 1
elia 1
cic 1
▁honored 1
▁castle 1
avand 1
rough 1
▁Address 1
angle 1
leton 1
▁locked 1
▁consolid 1
▁voucher 1
ației 1
wachsen 1
▁magazines 1
▁Schools 1
▁voices 1
▁Dry 1
▁tricks 1
schließlich 1
▁loyalty 1
risk 1
▁Vers 1
chester 1
▁decorated 1
▁copiilor 1
riz 1
03. 1
▁Hur 1
▁archive 1
▁Continue 1
▁Nähe 1
jit 1
gekommen 1
▁conjunction 1
combining 1
▁Unterstützung 1
oza 1
▁sketch 1
▁arată 1
▁Mining 1
uous 1
▁devis 1
Almost 1
Hu 1
▁Om 1
MF 1
liz 1
▁fails 1
▁comparable 1
▁vein 1
▁Vis 1
▁viagra 1
▁farming 1
▁Late 1
geschrieben 1
hrew 1
▁melt 1
lager 1
halte 1
▁Hotels 1
▁facebook 1
▁défi 1
shore 1
▁membrane 1
▁sixth 1
api 1
▁Owner 1
▁(" 1
▁$50 1
▁protective 1
/2 1
▁Girls 1
Gri 1
▁nouă 1
▁infections 1
rân 1
▁Geb 1
▁Conseil 1
▁imagini 1
▁promotions 1
▁enforce 1
▁applicant 1
▁Apart 1
▁progression 1
▁careers 1
▁litigation 1
▁Menge 1
▁Contract 1
▁Kel 1
▁réserve 1
▁Cold 1
▁larg 1
▁microwave 1
▁Whit 1
▁Technologies 1
OU 1
itudine 1
▁handles 1
▁proceedings 1
▁prizes 1
▁unterstützen 1
▁piele 1
▁profound 1
schließen 1
▁trafic 1
▁Nar 1
▁Gesamt 1
▁bugs 1
▁Amy 1
▁eastern 1
nice 1
▁Besuch 1
▁synth 1
▁clasa 1
Book 1
▁ribbon 1
▁neues 1
ZE 1
▁peers 1
leistung 1
▁internship 1
count 1
nam 1
▁12- 1
acked 1
gonna 1
▁Dinge 1
Time 1
▁twelve 1
eye 1
▁avantaj 1
▁Glas 1
aucune 1
▁boil 1
▁Gray 1
adapt 1
occ 1
▁prieten 1
▁trai 1
▁Scal 1
▁conscious 1
▁charter 1
KS 1
▁Barr 1
▁summit 1
▁inflammation 1
tungs 1
ovic 1
▁conduit 1
▁Alice 1
▁veterans 1
Während 1
▁maximal 1
▁Hawaii 1
▁Pine 1
acelasi 1
hyp 1
sensitivity 1
pour 1
ре 1
▁Kentucky 1
▁badge 1
affecting 1
▁chairman 1
▁München 1
▁Hersteller 1
▁urmat 1
tels 1
▁FM 1
▁Basis 1
▁erklärt 1
▁changer 1
tischen 1
▁brave 1
▁siguranta 1
▁partnerships 1
ților 1
▁breathe 1
rink 1
▁footage 1
▁transformed 1
▁prep 1
▁upset 1
▁Native 1
▁Prima 1
▁jersey 1
230 1
▁lucrurile 1
▁divine 1
▁Pit 1
RIS 1
▁Cultural 1
▁exotic 1
▁tastes 1
▁bargain 1
▁optimize 1
▁électrique 1
deuxième 1
▁Gary 1
▁projection 1
▁sliding 1
club 1
association 1
▁LG 1
▁capsule 1
▁politicians 1
▁thumb 1
▁globally 1
positioned 1
▁Hamilton 1
arme 1
▁efectuat 1
zip 1
▁welfare 1
Leistung 1
▁Bac 1
▁fizic 1
OK 1
▁limba 1
▁wardrobe 1
▁offline 1
▁fortune 1
▁dialog 1
▁dramatically 1
▁NYC 1
▁Rem 1
▁bronze 1
▁pulse 1
Fortunately 1
▁glue 1
▁Expo 1
▁profitable 1
▁distributor 1
abilité 1
▁lyrics 1
▁mesh 1
▁organizational 1
▁vanilla 1
▁foc 1
▁1984 1
▁créé 1
▁servi 1
▁underneath 1
▁surveys 1
▁genes 1
▁limite 1
oder 1
▁mandatory 1
▁hospitality 1
▁bikes 1
▁Quote 1
glu 1
▁activitatea 1
preventing 1
▁Kh 1
économie 1
▁visite 1
▁spectacle 1
▁tract 1
▁quant 1
▁evolu 1
▁invata 1
▁homo 1
▁Users 1
introducing 1
hibi 1
▁Instrument 1
▁ép 1
▁Raj 1
▁executives 1
atoire 1
▁erforderlich 1
male 1
umble 1
erson 1
▁Treatment 1
▁Representative 1
▁corners 1
▁Petit 1
8) 1
▁Walker 1
▁Stir 1
/19 1
▁Stelle 1
ără 1
osse 1
2000 1
▁McG 1
DV 1
▁Firm 1
▁packet 1
Toate 1
▁institutional 1
rug 1
DG 1
fine 1
bringen 1
▁Horse 1
▁premiere 1
▁Că 1
acheter 1
▁Afghanistan 1
▁Prop 1
ühr 1
▁braucht 1
▁sunny 1
▁Sach 1
▁volumes 1
tinut 1
▁Sho 1
▁winds 1
▁Mall 1
ledge 1
▁sciences 1
plication 1
VR 1
destin 1
▁früh 1
▁tongue 1
▁Jennifer 1
▁bracket 1
▁episodes 1
breite 1
▁stoc 1
ilia 1
▁Gulf 1
▁transparency 1
Industrie 1
▁viewers 1
AIN 1
▁Registration 1
/4 1
▁fera 1
▁06 1
▁einzu 1
enburg 1
▁eff 1
▁Stage 1
▁Cour 1
indu 1
▁Tools 1
IST 1
grund 1
seitig 1
pai 1
▁waist 1
▁Therapy 1
▁nomination 1
▁seama 1
▁analyse 1
▁emerge 1
▁adjustment 1
▁stroll 1
▁Beyond 1
▁legally 1
▁gauge 1
▁26, 1
Tex 1
economic 1
stoffe 1
Wir 1
ffen 1
▁acoperi 1
▁finale 1
▁theoretical 1
1.3 1
anim 1
▁separation 1
agence 1
▁réalisé 1
sprech 1
▁embedded 1
▁defence 1
éni 1
▁Norman 1
▁insgesamt 1
▁reminde 1
▁timeline 1
▁symbols 1
▁booth 1
▁Window 1
▁Titan 1
înt 1
▁langa 1
isant 1
hart 1
broader 1
▁stays 1
dur 1
▁Actually 1
works 1
▁réussi 1
▁performant 1
▁banana 1
▁baked 1
▁Parlament 1
▁Legend 1
toata 1
platte 1
▁Mou 1
HL 1
▁(8 1
▁accepting 1
▁Senator 1
▁consciousness 1
▁conducting 1
▁panic 1
▁FDA 1
▁(7 1
tool 1
▁Shipping 1
▁hop 1
▁conferences 1
▁pork 1
▁spam 1
▁interesant 1
▁Tagen 1
sig 1
étro 1
▁legendary 1
▁Alternative 1
iana 1
▁responsable 1
▁Mihai 1
▁decreased 1
▁organised 1
▁Lamp 1
litz 1
ohn 1
▁moteur 1
III 1
▁Montag 1
▁naturel 1
▁Hus 1
▁Schl 1
ains 1
▁dying 1
▁HIV 1
], 1
alität 1
▁institute 1
mix 1
▁Regulation 1
▁pagina 1
▁Awesome 1
▁Official 1
▁Minute 1
▁dairy 1
▁carti 1
isk 1
▁thrilled 1
▁german 1
▁frustration 1
▁forums 1
command 1
▁router 1
▁Lösung 1
white 1
▁synthetic 1
▁retrouver 1
alle 1
daran 1
▁wahr 1
▁paths 1
▁unver 1
▁Environment 1
▁médecin 1
crypt 1
▁pursuit 1
flat 1
bron 1
▁Specialist 1
▁Vent 1
Gen 1
▁attraction 1
▁piese 1
CHE 1
fähig 1
▁28, 1
defender 1
▁stupid 1
enfin 1
▁composite 1
fragen 1
Part 1
may 1
▁Bucureşti 1
▁février 1
RED 1
▁makers 1
▁guns 1
▁pasta 1
STR 1
▁worthy 1
Poate 1
▁101 1
▁souhaitez 1
GN 1
drive 1
▁aveti 1
▁eventual 1
▁américain 1
▁Mine 1
▁sunset 1
▁Choice 1
▁offset 1
APP 1
▁suchen 1
▁aduc 1
▁Unternehmens 1
▁// 1
▁astept 1
▁Birthday 1
▁barn 1
apport 1
▁collar 1
▁gefunden 1
▁Hai 1
▁Soul 1
ismus 1
letzt 1
▁maker 1
▁executed 1
▁Forschung 1
▁täglich 1
▁tailor 1
▁headquarters 1
▁physicians 1
▁Scout 1
folgen 1
▁cycling 1
mindestens 1
▁joli 1
▁classification 1
▁Führung 1
▁peau 1
INT 1
▁Garage 1
teile 1
util 1
▁petrec 1
▁Nevada 1
▁laisser 1
▁territoire 1
▁fichier 1
▁Formula 1
scopul 1
▁Tee 1
▁Monte 1
▁pumpkin 1
▁picnic 1
▁occupation 1
▁numérique 1
linie 1
▁masina 1
▁Prä 1
▁dezvoltare 1
▁vient 1
▁ranks 1
▁Bruce 1
▁seara 1
▁hungry 1
▁resolved 1
paired 1
▁Congratulations 1
▁religi 1
sätze 1
▁Eat 1
▁dense 1
▁slice 1
▁mulți 1
▁vorbe 1
▁terminate 1
worm 1
ignon 1
▁Howard 1
▁toddler 1
▁waters 1
▁graduates 1
▁fundraising 1
06. 1
▁scent 1
▁CPU 1
▁Kid 1
▁Years 1
▁Oktober 1
filled 1
▁Laser 1
▁tut 1
ively 1
▁WiFi 1
standen 1
▁publié 1
▁explaining 1
trieb 1
▁Rapid 1
▁unterstützt 1
▁Sonnen 1
▁lenses 1
▁pressing 1
▁respected 1
adapted 1
Don 1
▁mun 1
MAR 1
▁seam 1
chev 1
▁Sozial 1
▁Arabia 1
▁equation 1
▁elevi 1
▁piata 1
JA 1
▁wholesale 1
▁faithful 1
legal 1
▁Brexit 1
vention 1
▁adhere 1
▁Associate 1
▁decorations 1
▁crois 1
buck 1
▁smartphones 1
Regardless 1
center 1
eiß 1
▁emotion 1
▁Gespräch 1
▁Avi 1
▁loft 1
▁Wissen 1
▁orchestra 1
▁gehören 1
▁Reich 1
▁abandoned 1
▁Lanka 1
pala 1
▁Stell 1
logged 1
terie 1
▁educa 1
1). 1
▁disponibil 1
IND 1
▁Pont 1
▁téléphone 1
▁rope 1
ève 1
▁Trainer 1
▁présence 1
▁Oscar 1
▁VR 1
▁Besucher 1
▁disponibles 1
▁gelten 1
▁ports 1
Invest 1
ésormais 1
schauen 1
▁Command 1
▁alternate 1
citation 1
évolution 1
▁Maine 1
pflege 1
2011 1
▁Ground 1
▁ghost 1
lebt 1
▁scenarios 1
▁mall 1
▁Kings 1
▁15% 1
▁Paint 1
FD 1
ugg 1
▁Leon 1
▁grows 1
▁pharmacy 1
▁situat 1
20,000 1
▁10,000 1
▁membre 1
▁facilement 1
▁Analytics 1
▁Marvel 1
▁survived 1
▁conviction 1
▁Produktion 1
▁professionally 1
▁contributor 1
▁Kurs 1
▁humor 1
▁cinci 1
▁Different 1
▁Verarbeitung 1
▁inexpensive 1
▁sortie 1
▁thankful 1
▁vacances 1
▁vergangen 1
▁wings 1
▁nano 1
▁touches 1
▁Notice 1
▁reprezinta 1
▁rewarding 1
▁Kurz 1
▁mega 1
▁secrets 1
▁vorher 1
▁crescut 1
▁coordination 1
▁dissertation 1
▁header 1
existent 1
thal 1
▁translate 1
vertrag 1
GU 1
▁Arthur 1
wahl 1
▁octobre 1
▁bother 1
▁pencil 1
▁Dyna 1
▁complimentary 1
écoute 1
PB 1
▁independently 1
▁targeting 1
fought 1
mental 1
▁Veranstaltung 1
▁tatsächlich 1
▁Features 1
▁1920 1
▁Domain 1
▁rally 1
▁iunie 1
▁fabrics 1
▁mint 1
▁antioxidant 1
hut 1
EPA 1
▁rigid 1
▁evit 1
▁personnage 1
▁garanti 1
▁Hä 1
▁Days 1
boarding 1
jemand 1
▁Pos 1
▁wool 1
▁boom 1
▁wichtige 1
▁emerged 1
▁smoothly 1
▁Interview 1
gemäß 1
▁suivi 1
▁missions 1
▁Kreis 1
century 1
▁tuned 1
isieren 1
▁Branch 1
▁Russell 1
▁** 1
▁Lehr 1
▁perspectives 1
▁handed 1
▁apporte 1
unta 1
▁contemplat 1
riel 1
▁freely 1
▁loyal 1
▁evolved 1
▁Cafe 1
▁assignments 1
▁Cream 1
▁Build 1
▁exams 1
▁graduation 1
▁Dining 1
inne 1
▁propriu 1
▁accordingly 1
▁seniors 1
▁sisters 1
formerly 1
▁fleur 1
▁alten 1
▁Gefühl 1
▁freeze 1
▁structured 1
▁reserved 1
stellt 1
▁foto 1
linger 1
▁profiter 1
▁trup 1
▁Hunter 1
▁widespread 1
entretien 1
▁Truck 1
Can 1
péri 1
▁>> 1
▁trains 1
▁faca 1
▁Patienten 1
▁scor 1
▁perceived 1
setzung 1
▁Robin 1
▁geboren 1
lons 1
inţa 1
glob 1
subsequently 1
▁vet 1
▁Holland 1
▁Clinical 1
▁uncertainty 1
hohen 1
uza 1
▁kleiner 1
▁substances 1
ados 1
wheel 1
▁cone 1
▁castig 1
▁Conditions 1
minus 1
▁permits 1
fond 1
▁reactions 1
▁Mario 1
▁materiale 1
AH 1
▁juillet 1
▁juridic 1
▁dropping 1
expérience 1
▁depot 1
▁plea 1
dezvoltarea 1
▁Independent 1
▁Homes 1
▁crust 1
▁pillow 1
kreis 1
▁boiler 1
latin 1
▁stet 1
GH 1
▁absent 1
▁Directors 1
zwischen 1
▁comprendre 1
▁25, 1
▁pharmaceutical 1
▁placeholder 1
KI 1
▁români 1
▁Dollar 1
▁Operations 1
▁Dublin 1
▁drawings 1
▁respir 1
▁haul 1
Obviously 1
▁Beat 1
▁jeans 1
▁Masters 1
▁bits 1
poți 1
▁asigur 1
▁intampla 1
▁marc 1
...... 1
▁districts 1
cru 1
nav 1
huile 1
▁limitation 1
boat 1
IRE 1
Unis 1
dated 1
▁consultants 1
▁Josh 1
tanz 1
launching 1
▁browsing 1
▁incerc 1
▁27, 1
не 1
wig 1
▁spar 1
▁token 1
▁09 1
spa 1
ometer 1
▁riders 1
▁Drop 1
RN 1
▁pairs 1
▁psychology 1
▁Douglas 1
▁verwenden 1
▁(9 1
▁Rental 1
▁délai 1
▁sooner 1
▁bankruptcy 1
04. 1
abend 1
çon 1
▁Ple 1
fug 1
▁Wohnung 1
▁Preise 1
▁Kay 1
▁notify 1
▁Brain 1
▁optical 1
▁modifications 1
▁repos 1
▁worksheet 1
continu 1
▁assumed 1
varying 1
feier 1
▁Freedom 1
▁Inhalte 1
▁observations 1
▁Gruppe 1
▁Cyber 1
hort 1
▁langue 1
führen 1
ganze 1
▁forte 1
▁Stefan 1
▁Jetzt 1
mehr 1
trip 1
▁poem 1
▁practitioners 1
▁connector 1
ECT 1
▁inseamna 1
addressing 1
▁beliebt 1
▁Mama 1
▁fade 1
messen 1
▁Visa 1
▁Meta 1
lene 1
▁remembered 1
/3 1
apte 1
▁uncomfortable 1
▁romance 1
▁réalis 1
▁Vincent 1
▁ABC 1
▁handicap 1
▁Shin 1
▁Hunde 1
▁Ach 1
▁Questions 1
▁particles 1
usch 1
▁SUV 1
▁Tous 1
▁empower 1
▁Yi 1
▁LinkedIn 1
▁Profile 1
▁surround 1
▁wh 1
▁Weiter 1
▁Weight 1
▁creatures 1
Especially 1
▁repede 1
▁albums 1
▁compatibil 1
▁Interesse 1
abili 1
▁roast 1
▁unii 1
▁Glad 1
▁enthusiasm 1
▁whisk 1
▁freezer 1
▁stolen 1
▁neighbour 1
▁sake 1
▁Effect 1
▁fighter 1
▁tranquil 1
▁organizer 1
pixel 1
▁Guest 1
▁Philipp 1
kunft 1
▁Meer 1
▁inviting 1
gänge 1
▁Position 1
giving 1
▁marble 1
▁neg 1
▁Haar 1
Ein 1
▁buses 1
▁Lodge 1
soare 1
▁Barn 1
▁captain 1
▁Fix 1
ulate 1
ență 1
▁finances 1
▁VIP 1
▁Adams 1
▁spécialisé 1
▁fortunate 1
ility 1
▁democracy 1
shu 1
▁consiste 1
▁tort 1
▁branding 1
▁porch 1
UNI 1
▁placut 1
▁coupled 1
▁ministre 1
▁minerals 1
▁safer 1
▁outlets 1
▁caution 1
▁lightly 1
▁utilizator 1
▁Pala 1
▁doll 1
(1) 1
chol 1
▁Left 1
▁roulant 1
▁propune 1
▁Cred 1
▁negotiations 1
amba 1
▁grasp 1
▁Amsterdam 1
▁Zweck 1
▁conven 1
▁organizing 1
section 1
▁endeavor 1
▁basics 1
jud 1
▁yarn 1
▁shout 1
fällt 1
▁dragoste 1
▁Rein 1
Cal 1
▁deaths 1
▁24, 1
▁măr 1
server 1
▁explic 1
▁sufer 1
▁lucrări 1
▁Disease 1
▁prescribed 1
prozess 1
▁dessin 1
▁refuge 1
▁cope 1
pole 1
▁vacant 1
▁sezon 1
▁Carbon 1
▁goût 1
Ste 1
▁surroundings 1
definite 1
▁adaptation 1
cteur 1
System 1
▁Burg 1
▁retention 1
examen 1
▁adjustments 1
nies 1
▁RSS 1
▁Umwelt 1
▁strengths 1
loom 1
▁pics 1
phase 1
▁Poland 1
▁practicing 1
monetary 1
▁embodiment 1
▁jocuri 1
▁impreuna 1
▁Lyon 1
keeping 1
▁Starting 1
▁începe 1
▁clay 1
bildung 1
Technologie 1
toxic 1
▁gasit 1
rott 1
brook 1
▁wann 1
▁lined 1
▁Chelsea 1
▁Orlando 1
▁Otherwise 1
▁debit 1
▁entsprechend 1
nism 1
issen 1
▁rendez 1
▁processus 1
mbi 1
▁Graduate 1
▁cozy 1
▁Freunde 1
▁teme 1
▁bias 1
102 1
terrorism 1
threatening 1
ни 1
▁Sonntag 1
▁efect 1
▁prayers 1
▁backpack 1
?) 1
▁searches 1
ouverture 1
▁sustained 1
hawk 1
messe 1
▁prototype 1
▁stră 1
▁Neo 1
▁29, 1
izo 1
▁Anton 1
SIS 1
pendant 1
▁passive 1
▁Aaron 1
▁Karen 1
▁Bildung 1
ario 1
▁regulator 1
gruppe 1
stepped 1
▁interventions 1
▁rounds 1
▁Khan 1
▁railway 1
▁souvenir 1
▁Plans 1
aille 1
▁billing 1
▁Spiele 1
▁supermarket 1
▁flows 1
▁PayPal 1
▁tribe 1
anni 1
▁rides 1
▁Orleans 1
▁evaluated 1
founder 1
▁Feld 1
▁altele 1
▁thermo 1
ugh 1
▁adus 1
▁Taiwan 1
▁clause 1
oxi 1
alcool 1
▁Noi 1
rub 1
▁dosar 1
▁Nelson 1
fassung 1
▁Kill 1
▁Standards 1
▁upward 1
▁Coloring 1
Designed 1
▁Nou 1
▁borrow 1
▁Poll 1
▁antibiotic 1
▁fabrication 1
quo 1
▁crimes 1
▁nahe 1
▁aplicat 1
OST 1
▁Beijing 1
fight 1
▁lodge 1
dreh 1
▁harness 1
▁noiembrie 1
ounded 1
▁Imp 1
▁nächste 1
funktion 1
exploitation 1
▁Ready 1
▁Plate 1
▁octombrie 1
▁considerat 1
▁Xbox 1
mind 1
▁Lind 1
runde 1
mination 1
▁memori 1
▁cere 1
barkeit 1
▁găsi 1
2.1 1
▁Finding 1
▁static 1
court 1
▁Gem 1
▁pièce 1
▁reel 1
▁manuscript 1
▁complications 1
▁controlling 1
▁favour 1
▁advancement 1
▁Radi 1
▁faites 1
▁ordin 1
sorted 1
▁1982 1
▁brutal 1
▁Guy 1
▁accomplishment 1
▁wer 1
▁withdraw 1
abilitate 1
▁NBA 1
▁Benefit 1
▁divide 1
induced 1
▁văzut 1
▁peel 1
▁joints 1
▁enthalten 1
▁spy 1
▁occasional 1
warm 1
ême 1
▁Betriebs 1
▁Ioan 1
▁balloon 1
▁leap 1
pelled 1
▁realise 1
▁Retail 1
▁Farben 1
▁Kennedy 1
▁Firma 1
▁tineri 1
tub 1
PORT 1
▁stiff 1
▁notable 1
tler 1
▁utile 1
▁jouer 1
▁Primary 1
▁retailer 1
▁jederzeit 1
▁amend 1
▁sagte 1
atch 1
ution 1
once 1
ended 1
▁literary 1
▁wrist 1
vii 1
scriere 1
▁compassion 1
▁Milan 1
▁Dach 1
▁problèmes 1
▁Pré 1
▁Feder 1
Dr 1
Spr 1
▁né 1
François 1
▁Shu 1
▁poison 1
zier 1
▁attain 1
▁switching 1
▁vibration 1
▁Tablet 1
▁Lern 1
offrir 1
123 1
cheapest 1
▁numărul 1
break 1
cyto 1
▁Mississippi 1
▁dragon 1
fir 1
▁fête 1
▁Wait 1
buy 1
având 1
▁Scar 1
▁Hund 1
bug 1
▁classique 1
▁tenant 1
▁Walt 1
▁timber 1
inscription 1
BD 1
▁Commissioner 1
▁casinos 1
▁prochain 1
▁rustic 1
▁Kent 1
▁Deci 1
ли 1
▁crossed 1
▁delightful 1
▁metres 1
▁scandal 1
▁activitate 1
▁nimeni 1
ease 1
▁revenues 1
▁partially 1
AE 1
nique 1
▁fixtures 1
▁pupils 1
Lib 1
analyse 1
▁Oracle 1
troph 1
▁detected 1
▁servant 1
▁badly 1
comparing 1
abs 1
▁fotografi 1
▁Million 1
▁Gordon 1
▁Smok 1
▁Essay 1
eptic 1
▁Transportation 1
/2019 1
▁alignment 1
▁laut 1
stände 1
▁concerts 1
▁weekends 1
▁obstacles 1
wür 1
▁Fisher 1
▁supervisor 1
▁traders 1
▁scary 1
▁Grove 1
▁expose 1
▁enemies 1
▁Lux 1
▁Berufs 1
▁Sheet 1
▁Natürlich 1
▁examined 1
pursuing 1
▁pools 1
▁Thompson 1
▁SAP 1
claiming 1
buried 1
assurance 1
▁sandwich 1
uber 1
▁laisse 1
peak 1
spring 1
▁august 1
▁benötigt 1
▁achievements 1
coala 1
▁scr 1
gesagt 1
▁envelope 1
▁mapping 1
▁Suche 1
first 1
▁Quin 1
räu 1
▁răs 1
chemical 1
dad 1
formation 1
▁cushion 1
▁Maß 1
07. 1
▁perioadă 1
▁Wunsch 1
▁joi 1
▁$25 1
▁uploaded 1
▁hobby 1
▁septembrie 1
▁Dimension 1
▁domeniu 1
▁Tourism 1
▁fais 1
aches 1
neck 1
▁Chip 1
▁Tisch 1
▁Pai 1
▁Butter 1
▁altor 1
cultural 1
▁bases 1
▁Christopher 1
Kindle 1
▁bathrooms 1
▁civilian 1
▁Architecture 1
heiten 1
otte 1
ри 1
wash 1
▁evenimente 1
lade 1
▁ermöglicht 1
Port 1
▁Horn 1
▁Housing 1
▁Profit 1
▁stressed 1
▁70% 1
laying 1
▁specialize 1
▁Published 1
corp 1
▁revision 1
▁sail 1
courtesy 1
tax 1
▁perfekt 1
▁Risk 1
▁chaleur 1
ych 1
▁spine 1
▁holders 1
▁Speaking 1
▁Bernard 1
incarc 1
shalb 1
Potrivit 1
arising 1
▁kingdom 1
▁potato 1
▁promoted 1
▁judges 1
▁naturelle 1
▁Kindern 1
schicht 1
▁Drag 1
atta 1
soient 1
INS 1
▁legislative 1
▁teens 1
▁Fotos 1
▁illustrations 1
möglichkeiten 1
Votre 1
▁tarif 1
cli 1
▁landlord 1
cine 1
▁bot 1
enhancing 1
▁März 1
▁succès 1
▁disclose 1
▁Geräte 1
▁Magn 1
dessous 1
▁miracle 1
▁travailler 1
▁herb 1
-01 1
litre 1
▁tău 1
ACC 1
▁diminu 1
itzer 1
▁personenbezogen 1
▁Pure 1
▁influences 1
ană 1
▁proposer 1
▁longest 1
euses 1
/1 1
hafte 1
▁Dich 1
▁candle 1
ouche 1
installation 1
▁Includes 1
▁entfernt 1
traf 1
▁None 1
▁produc 1
held 1
graphic 1
▁demographic 1
ingham 1
schul 1
▁sneak 1
laub 1
▁thickness 1
▁killer 1
▁entsprechende 1
▁theft 1
▁Jerusalem 1
Adapt 1
▁updating 1
tete 1
▁warming 1
anlage 1
▁lenders 1
mobile 1
▁Package 1
▁Volume 1
--- 1
▁Others 1
content 1
tement 1
bildet 1
▁washer 1
▁freelance 1
▁fein 1
▁catering 1
▁warmth 1
▁Month 1
▁Federation 1
▁editorial 1
▁Shopping 1
▁efort 1
▁damp 1
▁declined 1
▁1978 1
6,000 1
location 1
▁blogger 1
▁goodness 1
▁Purchase 1
▁suspended 1
▁assessed 1
rada 1
▁Lac 1
▁angeboten 1
▁Wetter 1
ores 1
▁fourni 1
▁retire 1
▁Baptist 1
▁Saison 1
Bar 1
▁dossier 1
brow 1
▁Kaffee 1
-25 1
▁festivals 1
▁sellers 1
Ü 1
▁publisher 1
▁Designs 1
▁putut 1
▁Built 1
▁recreational 1
▁european 1
▁binary 1
▁Nieder 1
taking 1
▁Lots 1
▁recognised 1
ssant 1
ITE 1
oom 1
▁Kre 1
▁pipes 1
▁hinge 1
▁enterprises 1
▁texts 1
Organiz 1
▁suivre 1
noc 1
fair 1
▁darkness 1
▁Whi 1
natural 1
Bas 1
▁tribute 1
▁Naţional 1
hara 1
▁catégorie 1
▁Schedule 1
▁lernen 1
▁Plastic 1
▁giveaway 1
▁Ideen 1
▁circa 1
▁lice 1
▁Meinung 1
▁beside 1
▁vazut 1
strom 1
boro 1
▁Soon 1
dozens 1
▁Arena 1
▁viața 1
▁Impact 1
current 1
FM 1
▁coil 1
gold 1
▁spate 1
1.4 1
solution 1
▁Wayne 1
▁queen 1
illion 1
greifen 1
▁Bil 1
rote 1
END 1
äl 1
▁reçu 1
flower 1
▁draws 1
plant 1
2010 1
▁oper 1
▁conserve 1
▁sprinkle 1
mode 1
▁lifting 1
▁Institution 1
Când 1
Aus 1
▁fears 1
▁appointments 1
oarele 1
▁duck 1
▁stadium 1
▁vezi 1
▁lap 1
▁proceeds 1
geschlossen 1
▁tren 1
VS 1
▁vais 1
ținut 1
▁Concert 1
▁planting 1
▁honour 1
▁gras 1
woo 1
▁Hero 1
▁stimulate 1
▁überhaupt 1
▁bounce 1
oodle 1
▁packs 1
▁Poker 1
▁acea 1
▁parish 1
-24 1
▁iTunes 1
▁lumière 1
third 1
▁dynamics 1
Unless 1
▁immense 1
▁Sec 1
lois 1
époque 1
NB 1
written 1
▁logement 1
submitting 1
▁Quand 1
▁foi 1
▁catalogue 1
nova 1
▁prezentat 1
▁tart 1
те 1
hack 1
▁Politic 1
▁18, 1
▁ignored 1
▁spoon 1
▁Joy 1
▁reside 1
.99 1
lytic 1
▁bogat 1
▁nurses 1
▁funcţi 1
▁produselor 1
▁Associates 1
Est 1
▁peanut 1
▁résultat 1
08. 1
▁Astro 1
▁personnelle 1
320 1
▁Grab 1
éco 1
▁clasic 1
offre 1
▁idee 1
▁cheat 1
▁Flug 1
▁1500 1
▁kurze 1
With 1
▁Half 1
▁disciplines 1
sorption 1
▁greutate 1
mä 1
▁Literatur 1
3/ 1
4.0 1
▁déco 1
▁Fuß 1
▁Deutsche 1
▁abundance 1
▁Luther 1
▁nutritional 1
▁Jude 1
AY 1
▁chore 1
▁Kro 1
▁alin 1
lösung 1
▁geworden 1
▁sociaux 1
▁Spark 1
▁phenomenon 1
ICA 1
▁Ran 1
▁Schwarz 1
▁1983 1
ет 1
möglich 1
vocation 1
▁Organic 1
Oh 1
▁blockchain 1
▁Bă 1
▁Bass 1
enie 1
▁rêve 1
▁Rap 1
▁democratic 1
▁Chart 1
▁Voi 1
process 1
▁preach 1
tient 1
▁Train 1
▁Reihe 1
help 1
1.6 1
▁cazuri 1
▁chap 1
aktiv 1
▁2006. 1
iene 1
▁BBQ 1
dauer 1
2). 1
▁Monat 1
Generally 1
▁bracelet 1
▁cartoon 1
▁pui 1
temp 1
▁Particip 1
▁dumneavoastră 1
▁Gin 1
iunile 1
reise 1
▁einzige 1
ANCE 1
▁humble 1
claim 1
LV 1
▁confiance 1
▁Trading 1
▁Fabric 1
▁Duke 1
spieler 1
▁reject 1
▁crise 1
▁borders 1
▁Vehicle 1
zeiten 1
enrolled 1
venue 1
▁forests 1
vascular 1
▁phrases 1
▁receptor 1
schied 1
▁soirée 1
▁partener 1
▁Jobs 1
▁segments 1
▁violate 1
▁viable 1
▁encountered 1
▁travelers 1
▁împ 1
▁convince 1
▁mailing 1
▁Zahn 1
attend 1
▁eBay 1
▁Emergency 1
wirtschaft 1
▁scholars 1
▁considerably 1
▁combo 1
hiver 1
▁mysterious 1
▁Degree 1
▁fate 1
▁transplant 1
▁samedi 1
unit 1
▁moyenne 1
▁Liverpool 1
▁Champions 1
zzle 1
▁arena 1
▁Pipe 1
▁waterproof 1
▁eternal 1
Whenever 1
▁Hop 1
▁Betrieb 1
gne 1
▁spe 1
▁Corner 1
▁devenir 1
ambiance 1
▁Graham 1
▁desires 1
▁Applications 1
▁genutzt 1
tek 1
▁Career 1
▁staple 1
▁Dodge 1
▁strictly 1
▁Gruppen 1
▁Finanz 1
▁sporting 1
▁Wieder 1
anny 1
▁bucura 1
▁Pest 1
▁circles 1
▁richtige 1
▁cycles 1
static 1
lasting 1
▁calcium 1
▁digest 1
Enfin 1
▁stressful 1
▁schemes 1
▁décision 1
▁comercial 1
işti 1
▁Comic 1
▁extensions 1
▁Sieg 1
▁pine 1
ieß 1
▁Images 1
▁Mensch 1
Pap 1
▁crops 1
▁sheep 1
▁istoric 1
▁Assessment 1
▁mounting 1
wirken 1
▁augment 1
▁picioare 1
organisme 1
▁Monitor 1
▁celles 1
▁Maison 1
notified 1
▁chew 1
▁bleu 1
dow 1
▁Grav 1
▁curtains 1
▁Campus 1
▁controversial 1
▁soutien 1
▁Dell 1
▁instrumental 1
▁Nan 1
▁prom 1
▁spatial 1
Similarly 1
▁Gala 1
ultimul 1
▁Vom 1
▁Foot 1
bike 1
▁acids 1
entend 1
ivă 1
▁Weitere 1
▁vitamins 1
▁enhancement 1
▁Cruise 1
assemble 1
▁spécifique 1
affaires 1
▁indispensable 1
▁logistics 1
▁manche 1
▁dealt 1
▁favorable 1
▁unwanted 1
▁handmade 1
▁Regi 1
safe 1
persoanele 1
▁destinat 1
▁Maxi 1
▁salmon 1
wag 1
210 1
▁warned 1
läuft 1
agging 1
▁responsabil 1
▁presse 1
▁amis 1
▁rolls 1
control 1
▁Manufacturer 1
hnen 1
▁buget 1
OW 1
etro 1
▁communauté 1
unci 1
▁Chine 1
combines 1
▁learners 1
STE 1
ckel 1
Service 1
▁veröffentlicht 1
besides 1
getragen 1
▁opponent 1
▁volum 1
▁confusing 1
invasive 1
▁conseils 1
▁vibe 1
View 1
oară 1
Link 1
▁holy 1
▁crema 1
▁Michelle 1
▁Wien 1
▁undertake 1
▁Photograph 1
humain 1
▁Hang 1
designed 1
▁analyses 1
▁compose 1
▁substantially 1
▁marking 1
▁campagne 1
▁$15 1
pharma 1
▁playoff 1
▁momentum 1
Temp 1
▁vinegar 1
▁descriptions 1
christ 1
wore 1
ITY 1
stehen 1
▁insulation 1
grav 1
2.2 1
▁Explore 1
▁dye 1
stair 1
artisan 1
▁zoom 1
▁turkey 1
▁locksmith 1
▁sewing 1
▁modeling 1
lied 1
adel 1
▁Going 1
WH 1
▁deserves 1
▁arriving 1
OFF 1
torului 1
ucked 1
▁approached 1
▁élevé 1
▁quotidien 1
▁derzeit 1
nutzt 1
science 1
▁Emma 1
▁builds 1
▁Logo 1
▁clouds 1
inflammatory 1
țiuni 1
▁Cisco 1
▁würden 1
▁Shaw 1
▁Ell 1
avance 1
anglais 1
weil 1
▁singura 1
ACK 1
likewise 1
ographie 1
liegen 1
▁Crow 1
▁unic 1
▁Ale 1
▁păstr 1
▁informal 1
650 1
Benz 1
▁antenna 1
▁pagini 1
▁lansat 1
▁Fans 1
taine 1
JO 1
▁Tips 1
cir 1
nou 1
▁planted 1
▁steering 1
▁Waren 1
▁clearance 1
▁Moscow 1
▁Faith 1
▁Pizza 1
▁Tank 1
QUE 1
▁studii 1
éné 1
▁guerre 1
▁celebr 1
▁Factory 1
▁Browse 1
▁Request 1
▁taxpayer 1
▁assert 1
unternehmen 1
▁Ergebnis 1
▁Antwort 1
▁Photography 1
▁plă 1
IME 1
▁prochaine 1
ajouter 1
▁buffet 1
▁pixels 1
▁pledge 1
▁Inhalt 1
▁chase 1
Flow 1
▁melodi 1
▁Abu 1
▁1979 1
▁Photos 1
▁qualifications 1
▁zis 1
IAL 1
▁lender 1
▁indiferent 1
▁behaviors 1
▁flowing 1
▁zweite 1
abl 1
Schw 1
opi 1
ggi 1
▁depart 1
▁garde 1
▁tuition 1
fälle 1
▁determina 1
▁spice 1
▁petites 1
kot 1
▁intersection 1
hak 1
▁autumn 1
▁verbunden 1
▁ferme 1
PN 1
▁insurer 1
arten 1
▁Turkish 1
▁shoulders 1
=> 1
▁Nike 1
uire 1
▁Chile 1
jon 1
▁fragrance 1
▁bean 1
ips 1
assuming 1
liens 1
tocmai 1
▁60% 1
ipped 1
DIS 1
▁predicted 1
▁Picture 1
Bahn 1
104 1
tended 1
▁approve 1
▁magasin 1
▁mindset 1
rase 1
grand 1
▁Principal 1
▁informații 1
▁legătur 1
▁Farb 1
▁Dieu 1
▁alliance 1
weiligen 1
▁Câ 1
▁counseling 1
▁traveled 1
▁translated 1
▁carne 1
aked 1
▁LCD 1
▁Folge 1
▁Erfahrungen 1
▁1981 1
▁răspuns 1
itori 1
▁elementary 1
▁vorbei 1
▁cargo 1
disciplinary 1
WR 1
▁counterpart 1
family 1
▁viață 1
▁Definition 1
▁Cow 1
fällig 1
▁Sicht 1
▁mum 1
▁Mediterranean 1
nev 1
bü 1
▁slave 1
schnitt 1
▁firme 1
▁spill 1
▁wages 1
▁refine 1
▁upgraded 1
▁gospel 1
▁quartier 1
▁#2 1
▁Situation 1
▁suggesting 1
▁acne 1
▁Murray 1
▁Ian 1
hören 1
bia 1
▁Bewegung 1
▁abzu 1
reveals 1
friend 1
▁Connecticut 1
▁Testament 1
▁Lit 1
▁Ship 1
▁minunat 1
▁Moving 1
▁Device 1
▁Bake 1
▁qualification 1
▁challenged 1
▁Hinweis 1
▁sechs 1
та 1
120 1
licht 1
▁supervision 1
▁milestone 1
zeig 1
▁emphasize 1
▁complain 1
sack 1
▁rebuild 1
projekt 1
▁saint 1
lette 1
rade 1
▁pacient 1
signed 1
▁mil 1
cali 1
▁brochure 1
▁Bulgaria 1
Har 1
DH 1
▁jumping 1
ären 1
▁tactics 1
▁soleil 1
lessness 1
steigen 1
▁Brief 1
▁Oz 1
credit 1
glass 1
▁Baltimore 1
varies 1
sourced 1
▁documented 1
▁devine 1
möglichst 1
▁früher 1
outefois 1
▁Engagement 1
▁anumit 1
▁1930 1
▁Aufgaben 1
▁lineup 1
▁Cad 1
améliorer 1
▁februarie 1
▁cancellation 1
▁locks 1
▁modèles 1
▁breakdown 1
Ticket 1
▁Chen 1
▁Competition 1
▁median 1
rische 1
▁multipli 1
▁Belgium 1
▁Physical 1
▁parameter 1
▁carrot 1
▁mandat 1
▁towel 1
▁insured 1
PRI 1
etter 1
▁Oder 1
argued 1
FB 1
versicherung 1
abila 1
▁Coin 1
around 1
▁Lorsqu 1
valent 1
▁weltweit 1
Mod 1
▁defect 1
ibly 1
▁Juan 1
▁Jur 1
large 1
▁indicators 1
invest 1
▁rehabilitation 1
nag 1
▁Grundlage 1
▁Strategy 1
▁supérieur 1
▁orbit 1
▁Auftrag 1
▁Verb 1
ANA 1
▁trimis 1
▁Rub 1
institu 1
▁inspect 1
▁Princess 1
especially 1
▁combinations 1
▁gaze 1
elemente 1
deal 1
polis 1
shaw 1
▁Republicans 1
aded 1
▁Louisiana 1
▁Ville 1
▁afterwards 1
ONG 1
▁dryer 1
▁Manhattan 1
▁recomanda 1
▁juca 1
▁Crown 1
▁flesh 1
sichtig 1
▁rempli 1
▁deposits 1
▁Voll 1
▁analysts 1
▁Krieg 1
▁Rosa 1
▁Supply 1
GF 1
idad 1
▁flush 1
▁circular 1
▁național 1
▁lorsqu 1
▁analyst 1
▁Jahrhundert 1
▁biology 1
copy 1
▁bringt 1
▁Gospel 1
▁sorgen 1
zeichnung 1
chair 1
EB 1
▁Beth 1
115 1
▁Neue 1
▁faible 1
▁methodology 1
spiele 1
▁cherry 1
▁Mak 1
▁volet 1
funk 1
▁aktuelle 1
▁Yahoo 1
▁Zusammenarbeit 1
▁Serve 1
▁simpler 1
intégr 1
ndlich 1
▁actress 1
▁reuse 1
▁reviewing 1
statt 1
▁diving 1
▁Național 1
voi 1
Disc 1
▁Mineral 1
▁emit 1
witz 1
▁forgot 1
▁dim 1
upper 1
sichtlich 1
▁parcours 1
8:00 1
▁keyword 1
▁upgrades 1
kunden 1
▁Seg 1
▁Circle 1
▁ginger 1
mment 1
▁expenditure 1
▁parle 1
▁Counsel 1
▁Gui 1
resident 1
▁benchmark 1
▁Elektro 1
▁réalité 1
▁ridiculous 1
▁necklace 1
nian 1
▁Move 1
▁elevated 1
WE 1
▁Drum 1
▁Delivery 1
indicating 1
▁Benjamin 1
▁Samuel 1
bene 1
▁experienta 1
▁rocket 1
▁fossil 1
▁festive 1
▁conscience 1
▁bacon 1
▁aero 1
public 1
▁zic 1
ombre 1
▁Drain 1
7.5 1
▁Deutschen 1
reportedly 1
▁Français 1
▁enzyme 1
▁inquiry 1
▁presque 1
▁Airlines 1
▁Salon 1
▁Volunteer 1
▁modular 1
ón 1
NH 1
▁souhaite 1
social 1
▁Include 1
▁Decor 1
dded 1
▁Außen 1
rendu 1
▁MBA 1
▁columns 1
▁Wing 1
▁landmark 1
schritt 1
▁désir 1
(5) 1
▁réseaux 1
income 1
▁revised 1
HY 1
▁Explorer 1
▁Lam 1
▁almond 1
▁faux 1
opt 1
Out 1
▁virtue 1
▁Chocolate 1
▁spannend 1
▁spices 1
▁Climate 1
▁Residential 1
gung 1
▁filtr 1
circ 1
sisted 1
▁dedicat 1
▁foil 1
▁uita 1
▁lié 1
▁Demo 1
▁spoil 1
Cu 1
naut 1
▁configured 1
UK 1
▁disagree 1
Medic 1
cosm 1
Toute 1
▁beneficia 1
fassen 1
▁bail 1
igue 1
▁Mă 1
▁strips 1
▁Dritte 1
▁putere 1
Play 1
▁Samstag 1
▁households 1
▁persistent 1
uben 1
Web 1
▁scenery 1
▁défini 1
news 1
eira 1
▁Mumbai 1
▁Ward 1
▁ladder 1
▁plaque 1
nés 1
▁condamn 1
▁attribute 1
atti 1
▁Emily 1
▁pleine 1
▁automatisch 1
ifies 1
onna 1
▁inject 1
▁evolve 1
▁breeze 1
▁montre 1
▁memorial 1
ämlich 1
NBC 1
▁1940 1
▁trouvé 1
when 1
▁Büro 1
▁probability 1
cute 1
▁sturdy 1
AMP 1
▁Constantin 1
▁batter 1
▁bist 1
▁streams 1
rushing 1
▁shaft 1
▁proprii 1
émi 1
online 1
▁vanity 1
▁mural 1
▁distinguish 1
▁niciun 1
▁européenne 1
▁secretary 1
▁gaps 1
▁realm 1
▁elastic 1
▁Avoid 1
▁mauvais 1
▁innovations 1
▁suprem 1
▁vederea 1
wenden 1
-40 1
prenant 1
utilisateur 1
▁Oliver 1
111 1
▁manifestation 1
▁Rachel 1
agog 1
▁seamless 1
▁Employee 1
▁dimanche 1
▁banii 1
▁Ruth 1
▁Roy 1
▁homeless 1
▁Lower 1
health 1
▁atenti 1
▁touched 1
May 1
▁Buc 1
▁explored 1
▁declare 1
▁garment 1
▁buzz 1
▁rappel 1
▁uscat 1
▁Hyper 1
Etat 1
▁Titel 1
product 1
woman 1
▁Gab 1
▁advances 1
2/ 1
prone 1
kö 1
▁counting 1
Sollte 1
▁Konzept 1
▁backgrounds 1
jährige 1
▁Alltag 1
▁metrics 1
▁illustrated 1
▁Charge 1
▁thoughtful 1
gesetz 1
pfen 1
▁déroul 1
▁checkout 1
quette 1
▁pierdut 1
▁Seat 1
▁linen 1
archiv 1
arna 1
importe 1
▁PHP 1
▁Parents 1
▁Birmingham 1
▁Integr 1
▁Mason 1
zieht 1
▁camps 1
OG 1
▁syrup 1
▁Cookies 1
▁Comfort 1
ută 1
abia 1
zeci 1
▁Gardens 1
▁incidents 1
▁participat 1
▁glimpse 1
5.5 1
▁dealers 1
▁Grande 1
▁raid 1
owing 1
▁contrary 1
Earlier 1
tien 1
drop 1
▁angajat 1
▁procesul 1
▁focal 1
▁impart 1
▁Abschluss 1
carui 1
insul 1
▁creamy 1
eille 1
suppl 1
▁Heaven 1
éna 1
▁swap 1
▁vreau 1
▁Bryan 1
▁Zug 1
▁glance 1
▁elimin 1
▁yeux 1
wehr 1
2.5 1
▁poses 1
▁parcel 1
▁Apartment 1
▁NASA 1
▁bénéfici 1
▁Umgebung 1
asia 1
abi 1
coup 1
synchron 1
▁Sicherheits 1
bic 1
▁distract 1
▁rentals 1
constru 1
curs 1
genannten 1
▁Shanghai 1
▁vague 1
▁Leather 1
▁Vintage 1
pointing 1
avant 1
gues 1
sweise 1
▁Greater 1
fig 1
▁Blut 1
▁Stellen 1
▁isolation 1
▁overhead 1
▁wondered 1
essai 1
aves 1
▁Shore 1
▁INC 1
rufen 1
▁magnifique 1
▁intéressant 1
▁tanks 1
▁Tun 1
▁approaching 1
▁relay 1
▁Küche 1
describing 1
▁Certification 1
▁Breakfast 1
▁Frame 1
▁Stoff 1
▁victime 1
Observ 1
▁gutter 1
standard 1
▁Sci 1
▁sept 1
▁Potter 1
letter 1
▁tobacco 1
▁threatened 1
MW 1
▁Cher 1
0.1 1
mitted 1
zustellen 1
dominated 1
/16 1
POS 1
▁Zin 1
▁Okay 1
▁projected 1
▁selber 1
▁proiectului 1
▁Shell 1
▁cartridge 1
Message 1
haben 1
▁slides 1
▁gleichzeitig 1
▁Racing 1
▁20, 1
▁separat 1
▁repeatedly 1
▁casting 1
▁sacred 1
verfahren 1
▁echilibr 1
▁rebel 1
säu 1
ummy 1
▁backing 1
▁sponsors 1
▁Stress 1
▁Rules 1
▁render 1
▁funktioniert 1
▁Pearl 1
▁Scho 1
schwer 1
▁descoperit 1
holen 1
imposed 1
▁appearing 1
▁höher 1
▁Victorian 1
▁founding 1
▁Polish 1
▁anume 1
Box 1
▁intrat 1
▁Inspiration 1
▁Canyon 1
▁Franklin 1
▁susceptible 1
trap 1
▁Roma 1
▁ethics 1
▁Privat 1
▁journalists 1
▁Universität 1
▁conditioner 1
folge 1
kirche 1
gehalten 1
midi 1
▁radar 1
▁Yard 1
▁professionnelle 1
▁Orchestra 1
▁immigrants 1
▁refined 1
▁Bishop 1
string 1
▁majoritatea 1
▁workflow 1
▁întreg 1
went 1
▁trat 1
felul 1
▁hardwood 1
▁Task 1
branded 1
▁cinq 1
▁curb 1
▁Discount 1
▁Episode 1
▁Knowledge 1
▁tricky 1
▁characteristic 1
▁plata 1
▁Labour 1
▁Tha 1
▁Liefer 1
▁Reader 1
▁Linda 1
ittlerweile 1
defining 1
▁delayed 1
▁Bewertung 1
▁Unique 1
▁Champion 1
2008 1
▁conclu 1
▁câștig 1
▁scheduling 1
▁sailing 1
▁Storm 1
▁Stil 1
▁Album 1
▁ultime 1
url 1
▁terrific 1
▁remedy 1
▁Around 1
▁Kni 1
etty 1
Managing 1
▁Bedeutung 1
▁earthquake 1
▁Telefon 1
▁Upper 1
▁validation 1
-22 1
▁queue 1
tinde 1
built 1
▁voix 1
▁Resource 1
ţiuni 1
▁satisfying 1
▁Kohl 1
▁Materials 1
▁esp 1
enseignement 1
danach 1
peux 1
▁deployed 1
▁1976 1
ușor 1
élection 1
ettes 1
▁Madison 1
108 1
berger 1
▁pedal 1
▁quasi 1
▁lend 1
VER 1
▁chapters 1
▁idei 1
Deine 1
▁endure 1
▁Studios 1
structure 1
▁puiss 1
▁Morning 1
guide 1
▁Wave 1
▁banque 1
änd 1
oubli 1
▁mixer 1
▁remedi 1
▁scop 1
▁Rosen 1
▁spital 1
blau 1
▁financiar 1
avour 1
Def 1
▁socket 1
▁occurring 1
▁munci 1
▁realiza 1
▁beating 1
▁Phillip 1
▁courant 1
Auto 1
▁Lager 1
▁folos 1
▁moyens 1
▁Ec 1
▁Strip 1
sparen 1
▁Nintendo 1
▁Murphy 1
▁flux 1
▁mots 1
▁rechts 1
▁cardio 1
avoiding 1
érer 1
hiel 1
▁rezistent 1
close 1
hésitez 1
Hz 1
▁elaborate 1
▁permanently 1
▁Pittsburgh 1
▁counties 1
▁bookmark 1
▁Label 1
▁Freude 1
▁preferat 1
▁Mein 1
▁Crew 1
▁clips 1
8,000 1
▁recognise 1
ință 1
▁prieteni 1
Heute 1
ancienne 1
▁annoying 1
▁awful 1
▁Comments 1
▁musician 1
▁Elite 1
▁patri 1
▁Coupon 1
▁Farbe 1
▁contribui 1
hari 1
▁activitati 1
▁Traum 1
1.8 1
▁Healthcare 1
▁refresh 1
▁Maha 1
▁dép 1
▁Studien 1
▁spectacol 1
impro 1
▁commentaire 1
ported 1
▁reclam 1
▁Verkauf 1
▁newspapers 1
▁iubit 1
▁Kenne 1
▁Consultant 1
▁stau 1
TON 1
▁Fehler 1
▁lettre 1
▁investigator 1
▁quantities 1
ogram 1
avaient 1
▁reducere 1
Lite 1
kurs 1
pré 1
pap 1
▁Männer 1
▁gauche 1
▁ähnlich 1
▁sunlight 1
▁rester 1
jumped 1
▁exclusiv 1
▁electoral 1
▁Portal 1
ulent 1
▁sonst 1
entraîne 1
▁repas 1
▁redus 1
aku 1
▁Graphic 1
▁geringe 1
plätze 1
Trebuie 1
▁rezultate 1
▁configure 1
▁PV 1
▁insect 1
▁Reviews 1
releasing 1
▁appliance 1
▁oferte 1
▁WILL 1
rion 1
▁Cole 1
▁1975 1
Admin 1
▁parade 1
▁mélange 1
▁shortage 1
▁Measure 1
anchmal 1
▁transfers 1
▁sistemului 1
▁deschide 1
▁Künstler 1
▁Plain 1
▁messaging 1
▁metabolism 1
fill 1
▁Bomb 1
usine 1
▁restart 1
▁Discussion 1
smith 1
▁Bh 1
▁sap 1
Moo 1
▁indirect 1
▁eingesetzt 1
▁Hip 1
▁iulie 1
▁atac 1
▁passport 1
▁Egyptian 1
▁soluți 1
▁cakes 1
▁Fellow 1
▁collision 1
▁abundant 1
▁Wonder 1
▁theories 1
landed 1
▁meantime 1
schlüsse 1
▁helicopter 1
Voici 1
▁Honey 1
▁deleted 1
▁Projekte 1
▁gasi 1
applique 1
TAL 1
notch 1
▁Response 1
▁deveni 1
▁regulate 1
▁vegetarian 1
▁Pastor 1
▁Strong 1
▁élèves 1
▁alimente 1
graphy 1
▁spirits 1
▁Cau 1
determin 1
arilor 1
▁masura 1
RAN 1
marked 1
cuba 1
omni 1
▁detox 1
▁quartz 1
▁Bug 1
▁Sugar 1
▁opponents 1
▁solved 1
semn 1
▁Prepare 1
ffel 1
▁Highlight 1
▁curent 1
▁praktisch 1
▁lending 1
▁minority 1
Free 1
business 1
▁outlook 1
▁assessments 1
▁Brother 1
▁partager 1
▁Brun 1
▁pedestrian 1
anța 1
▁recycled 1
▁quicker 1
▁lamps 1
▁nationally 1
▁Supplier 1
ograph 1
engage 1
▁Marg 1
▁aplicare 1
▁scared 1
▁accredited 1
▁outils 1
▁bâtiment 1
▁existed 1
gegangen 1
▁elevation 1
▁Tradition 1
▁Gericht 1
hub 1
strahl 1
build 1
▁Customers 1
klasse 1
▁pierre 1
(2) 1
Life 1
▁bachelor 1
▁quad 1
▁dispozitiv 1
106 1
▁suburb 1
▁1977 1
▁Alzheimer 1
▁spicy 1
▁spreading 1
nötigen 1
▁novels 1
▁responsabilité 1
▁Bud 1
▁desirable 1
TOR 1
five 1
▁Firmen 1
oeuvre 1
grass 1
▁practically 1
▁runners 1
▁mothers 1
Shop 1
▁Chicken 1
▁License 1
▁Bach 1
earliest 1
▁replica 1
▁haunt 1
▁materi 1
▁Finland 1
▁europene 1
abilă 1
cati 1
▁cholesterol 1
...). 1
cardi 1
▁(12 1
analyzed 1
▁respondents 1
▁höchste 1
▁Kern 1
▁knapp 1
▁Someone 1
▁équipé 1
credited 1
▁numar 1
▁Ace 1
zentrum 1
nehmer 1
arrivée 1
ELE 1
clean 1
Boost 1
call 1
▁Polizei 1
▁Januar 1
▁Tile 1
▁traduc 1
▁promptly 1
limit 1
▁recharge 1
▁wipe 1
▁Norway 1
▁Municipal 1
▁medieval 1
▁Treat 1
Orient 1
▁Stewart 1
▁lol 1
appartement 1
▁payer 1
▁splash 1
doubtedly 1
dry 1
▁Forex 1
▁Edinburgh 1
▁Traditional 1
▁1968 1
▁glow 1
Alternatively 1
▁partly 1
égi 1
▁Prices 1
haupt 1
▁sentences 1
ouvre 1
▁Liter 1
▁Important 1
▁Collins 1
▁reproduce 1
▁selten 1
▁Mitte 1
OA 1
▁Sister 1
▁responding 1
▁ballot 1
▁Nutrition 1
occurrence 1
Atunci 1
▁hockey 1
▁undertaking 1
▁educators 1
▁Swedish 1
▁Recovery 1
▁circum 1
▁chains 1
▁genug 1
▁Pil 1
▁farms 1
▁simplicity 1
-21 1
▁partition 1
▁Relations 1
zentrale 1
lapse 1
▁toast 1
▁citi 1
▁longtemps 1
maj 1
▁Cin 1
zeichen 1
▁Zoo 1
▁frisch 1
▁permettra 1
▁Liberty 1
▁playground 1
▁Mate 1
▁evolving 1
national 1
▁signifie 1
▁Related 1
NES 1
euil 1
▁struggles 1
▁instinct 1
arbre 1
▁commands 1
▁frumoase 1
▁watches 1
NM 1
▁influential 1
▁gewesen 1
▁Pictures 1
▁HVAC 1
▁skate 1
▁Robot 1
▁Boys 1
▁Mutter 1
▁marques 1
utiliser 1
▁amazed 1
ächtig 1
▁Success 1
gramm 1
▁1972 1
▁marina 1
▁lou 1
▁précis 1
ographic 1
people 1
fahr 1
▁Contemporary 1
▁frustrating 1
chide 1
1.5 1
▁ankle 1
▁proximity 1
▁Leute 1
UA 1
union 1
▁recovered 1
▁sword 1
▁Mut 1
▁Rin 1
▁lectures 1
▁licensing 1
MAC 1
▁commute 1
Acesta 1
▁Koch 1
▁depozit 1
▁erstmal 1
arhi 1
▁Normal 1
EZ 1
ărilor 1
▁favoris 1
▁$9 1
▁Lawrence 1
▁fixing 1
▁researching 1
▁Pant 1
▁candid 1
▁Arkansas 1
▁bitcoin 1
ва 1
▁Finger 1
▁SRL 1
Arg 1
trade 1
▁extraction 1
▁footprint 1
▁folosite 1
▁Flex 1
▁dys 1
▁Wright 1
▁multitude 1
▁Chu 1
▁Jerry 1
▁notebook 1
▁SIM 1
dietary 1
▁polished 1
▁carriers 1
▁cardiac 1
▁burned 1
▁sealed 1
▁pumps 1
▁consumed 1
▁Teaching 1
▁daughters 1
serviciile 1
▁Teams 1
▁avoided 1
▁compagnie 1
▁mașin 1
▁Sean 1
▁arunc 1
kräfte 1
vani 1
Metall 1
2009 1
moi 1
▁THAT 1
▁Ny 1
▁countertops 1
Pod 1
amente 1
▁offshore 1
luti 1
parked 1
ajout 1
Shirt 1
▁3/4 1
▁gratuite 1
mètres 1
▁Wish 1
▁holistic 1
gren 1
compiled 1
▁innocent 1
▁sorte 1
▁insulin 1
▁Academic 1
▁acrylic 1
▁hinzu 1
▁compression 1
▁viral 1
▁stereo 1
▁Concept 1
▁Margaret 1
▁consolidation 1
Figure 1
zzo 1
▁Egg 1
weiterhin 1
▁Vista 1
▁necessity 1
▁kayak 1
▁consensus 1
▁Katz 1
▁Warren 1
▁custody 1
++ 1
▁paiement 1
▁foul 1
Chaque 1
▁Syrian 1
▁photographers 1
▁dismiss 1
▁Gaz 1
▁développer 1
▁Dakota 1
▁cardiovascular 1
▁tattoo 1
▁Lighting 1
▁nowhere 1
vada 1
▁Favor 1
ruled 1
▁Dating 1
gain 1
rism 1
coloured 1
▁refugees 1
▁Schm 1
▁happily 1
▁specification 1
WM 1
▁intro 1
rack 1
characterized 1
▁externe 1
▁arrives 1
WO 1
bericht 1
▁delays 1
▁Flight 1
1-3 1
▁Singh 1
▁shifting 1
▁dashboard 1
▁lieux 1
▁validate 1
▁uniquement 1
clip 1
cov 1
▁tendance 1
èle 1
▁incepe 1
▁chunk 1
▁Nr 1
▁Montana 1
▁sticks 1
▁caps 1
▁Jimmy 1
▁Levi 1
▁cables 1
▁SB 1
▁thème 1
ADA 1
▁garant 1
▁Joint 1
▁partage 1
schreib 1
ether 1
▁Klima 1
▁medicines 1
▁pH 1
Architect 1
știi 1
▁retrouve 1
▁posture 1
Feature 1
▁drying 1
trifft 1
ibi 1
▁rezerv 1
▁Vă 1
▁Speaker 1
▁illustration 1
oooo 1
▁initiated 1
PK 1
▁algorithms 1
▁zice 1
WI 1
urgence 1
▁bloggers 1
▁realitate 1
eks 1
▁cushions 1
▁Kri 1
▁réalisation 1
▁Photoshop 1
cret 1
faire 1
▁Cei 1
ICO 1
Contin 1
▁Builder 1
look 1
▁tenants 1
▁gloves 1
Day 1
firmly 1
CIA 1
▁TVA 1
▁notifications 1
▁Higher 1
▁Weihnachts 1
▁blur 1
ов 1
feder 1
▁explosion 1
▁Fenster 1
▁junge 1
▁Highland 1
▁Lü 1
▁Alba 1
▁Dort 1
▁recruiting 1
▁Multiple 1
▁animated 1
▁Virgin 1
1000 1
▁resin 1
▁matrix 1
irri 1
▁chiffre 1
▁Corps 1
▁advocacy 1
▁pozitiv 1
▁pouss 1
événement 1
▁pielii 1
onnais 1
▁Statement 1
crimin 1
hidrat 1
▁Jugendliche 1
TRI 1
erra 1
chat 1
▁traits 1
▁incentives 1
▁accelerate 1
woven 1
UST 1
▁premiers 1
▁Ferien 1
▁mariage 1
▁financially 1
gesellschaft 1
▁situaţi 1
▁quoted 1
▁periodic 1
▁chaos 1
▁remodel 1
▁Contractor 1
▁recuper 1
▁driveway 1
▁entertain 1
▁condus 1
▁chefs 1
pak 1
▁possède 1
▁outreach 1
▁navig 1
▁renewal 1
▁Rice 1
▁Czech 1
▁entstehen 1
▁droite 1
▁Investor 1
▁Soci 1
▁scalp 1
▁politiques 1
▁plaintiff 1
extending 1
▁paperwork 1
vizi 1
assisting 1
local 1
▁Wear 1
▁descend 1
▁Wikipedia 1
▁Consiliului 1
▁Nokia 1
▁facult 1
▁altogether 1
▁rankings 1
▁downloading 1
QU 1
▁Olive 1
▁backdrop 1
▁recomandat 1
▁Faculty 1
ANS 1
▁fracture 1
job 1
▁anticipate 1
▁drift 1
▁Marco 1
▁witnessed 1
▁comprend 1
▁bulb 1
▁shallow 1
stärke 1
▁Jessica 1
▁démarche 1
▁traditionally 1
Deputy 1
▁rivers 1
▁livraison 1
▁lacking 1
▁remodeling 1
▁acesteia 1
▁grosse 1
▁propus 1
lessly 1
▁Kredit 1
reputable 1
▁Sell 1
▁Crime 1
Ent 1
finity 1
▁Complex 1
easing 1
dynamic 1
▁eaten 1
gezogen 1
▁2004, 1
▁Muslims 1
▁Sprache 1
▁Truth 1
▁guarantees 1
/5 1
”). 1
▁Medium 1
▁décidé 1
▁balcony 1
leuchte 1
hik 1
▁Agriculture 1
▁securities 1
Probably 1
▁macar 1
▁Signal 1
lake 1
▁compétences 1
▁proprietary 1
allons 1
▁belongs 1
▁missile 1
țiune 1
▁Integration 1
▁testimony 1
▁wesentlich 1
▁donors 1
▁pivot 1
▁Uber 1
▁databases 1
▁studi 1
totdeauna 1
▁briefly 1
▁livr 1
▁CRM 1
gone 1
10) 1
▁zilele 1
Basically 1
▁medie 1
spotted 1
▁troubles 1
▁acknowledged 1
350 1
LB 1
Phy 1
natal 1
illé 1
bilder 1
▁apples 1
graphical 1
organiser 1
▁ochii 1
glas 1
CAP 1
▁Doors 1
▁Eis 1
tipuri 1
▁Worth 1
izează 1
nunț 1
▁Trip 1
ISS 1
efficient 1
Luckily 1
▁vase 1
▁gay 1
▁certificates 1
riad 1
stab 1
affiche 1
▁iPod 1
▁aștept 1
▁$500 1
▁Catherine 1
▁Circuit 1
▁ranch 1
▁consequence 1
listened 1
▁Options 1
feed 1
▁adviser 1
▁présenter 1
substant 1
▁Flag 1
▁Keith 1
▁inima 1
▁substrate 1
▁charger 1
▁reporter 1
ütz 1
▁unten 1
▁sympa 1
▁defeated 1
ändig 1
individu 1
▁Straßen 1
▁Nepal 1
million 1
▁Cake 1
▁investigations 1
▁inspector 1
▁Campbell 1
▁consommation 1
▁Ministerul 1
Advisory 1
▁Leistungs 1
▁Pull 1
▁lover 1
▁trunk 1
▁folosesc 1
pom 1
wunder 1
▁happier 1
▁embark 1
▁mediul 1
riff 1
▁copilul 1
ommage 1
rechnung 1
NU 1
▁fellowship 1
▁Mental 1
▁fever 1
▁silly 1
Object 1
NV 1
от 1
▁Strand 1
▁Exist 1
warum 1
CY 1
kä 1
!!!!! 1
▁moarte 1
▁waterfall 1
left 1
▁Nursing 1
▁invalid 1
struktur 1
Allerdings 1
étranger 1
▁prost 1
▁Parent 1
▁întreag 1
▁compensate 1
▁sometime 1
graduate 1
▁Carter 1
▁crap 1
▁mathematics 1
resemble 1
Dame 1
▁Swa 1
▁celebrity 1
▁verified 1
▁Behind 1
carbon 1
▁gateway 1
▁ambitious 1
▁Wellness 1
30,000 1
defined 1
specializes 1
▁Chase 1
HF 1
ABLE 1
▁Ehr 1
▁régime 1
▁awake 1
▁seafood 1
leading 1
▁Rule 1
verkehr 1
erem 1
▁1973 1
personal 1
ența 1
apprend 1
faisant 1
▁Sounds 1
▁Launch 1
half 1
▁verre 1
▁Regular 1
▁Nancy 1
quelles 1
▁erhält 1
▁socks 1
lamp 1
▁durchgeführt 1
▁advertise 1
powered 1
▁concur 1
▁ressources 1
▁allocation 1
chon 1
▁Larry 1
lässig 1
OLD 1
itty 1
▁immuno 1
▁(+ 1
▁Essential 1
▁semaines 1
Ru 1
▁Gear 1
völlig 1
liga 1
▁Neg 1
▁gratitude 1
aventure 1
▁frustrated 1
▁retrait 1
▁statut 1
550 1
ла 1
risto 1
WAY 1
▁pigment 1
Selon 1
stil 1
▁Marin 1
ashi 1
▁contine 1
▁Economics 1
both 1
▁Dou 1
Fel 1
UNT 1
▁grandmother 1
▁domicile 1
▁buffer 1
▁fuse 1
▁dosage 1
▁Nici 1
▁worries 1
▁Rail 1
uneori 1
▁Sierra 1
▁porni 1
▁NOTE 1
▁tendency 1
Set 1
▁Hof 1
▁Ruhe 1
harm 1
▁Developer 1
suing 1
persönlichen 1
▁agréable 1
commissioned 1
▁1974 1
▁1969 1
▁regl 1
▁terror 1
▁température 1
▁Archiv 1
▁Military 1
▁König 1
▁forex 1
wiki 1
thetic 1
alaturi 1
▁montant 1
▁maladie 1
gust 1
▁demander 1
avocat 1
▁sci 1
▁Wireless 1
▁Dein 1
▁trio 1
▁Same 1
Datei 1
▁alerg 1
crowded 1
▁Punkt 1
▁sanctions 1
stating 1
▁discusse 1
▁Eigen 1
▁sănătate 1
▁correspondence 1
cred 1
VG 1
▁différence 1
▁Montreal 1
▁masini 1
iata 1
▁sampling 1
▁Gib 1
▁sheer 1
330 1
CHI 1
▁damn 1
▁Advisor 1
Typically 1
ssé 1
quart 1
chete 1
▁Puerto 1
2-1 1
NN 1
▁styling 1
rud 1
од 1
▁Hydro 1
▁Cable 1
video 1
▁Wirkung 1
▁noble 1
▁Sonder 1
mati 1
850 1
▁Richmond 1
▁niciodată 1
AO 1
▁altered 1
▁(15 1
▁Motiv 1
AKE 1
▁bestimmte 1
6.5 1
hectare 1
atorită 1
▁phases 1
▁Nova 1
ordinateur 1
▁corrupt 1
error 1
▁attacked 1
▁Kirche 1
heir 1
Das 1
▁anxious 1
▁Doc 1
▁Roth 1
▁Cine 1
▁auditor 1
▁beverage 1
▁précédent 1
▁deploy 1
▁accessibility 1
▁cage 1
▁Contra 1
Best 1
iji 1
▁père 1
▁scenic 1
synthesis 1
ßen 1
▁Videos 1
▁refus 1
stimmen 1
▁sleek 1
artige 1
mari 1
▁excelent 1
▁negativ 1
▁blocking 1
spricht 1
▁discomfort 1
▁stratégie 1
▁Datenschutz 1
curg 1
▁lapte 1
▁acasă 1
▁ausschließlich 1
▁unbedingt 1
▁Linie 1
▁subscribers 1
109 1
▁Waste 1
▁Planung 1
▁visually 1
utilizarea 1
uba 1
▁fifteen 1
▁légère 1
ința 1
▁tolerance 1
▁piscine 1
▁nails 1
▁accus 1
▁coeur 1
freie 1
enţă 1
▁glucose 1
▁Jar 1
▁commencer 1
▁eliminating 1
▁mutation 1
▁afirma 1
▁Consulting 1
adia 1
zog 1
▁pielea 1
rton 1
exercice 1
namely 1
▁ajutor 1
▁markers 1
▁gardening 1
Karte 1
▁Pump 1
▁Dual 1
▁pratiques 1
▁behavioral 1
▁construire 1
▁Leonard 1
ediglich 1
ubbed 1
NK 1
shell 1
▁persönliche 1
ecuring 1
beaten 1
ALE 1
▁puppy 1
▁capac 1
▁seventh 1
▁nursery 1
▁Rum 1
▁exquisite 1
▁Legi 1
▁persist 1
bacterial 1
▁cereal 1
▁principe 1
chip 1
rush 1
▁funnel 1
▁calitatea 1
ibă 1
▁reign 1
▁congregation 1
▁obtine 1
▁découverte 1
▁gama 1
▁judec 1
Plan 1
▁gesture 1
öffentlichen 1
▁imported 1
▁rotate 1
blown 1
▁Protein 1
parfaitement 1
ondo 1
ologists 1
▁neighborhoods 1
▁Pope 1
▁museums 1
▁porter 1
▁kiss 1
pdf 1
sided 1
▁gern 1
bedingungen 1
▁Ride 1
Apoi 1
▁bestehen 1
5" 1
bob 1
ficient 1
premise 1
▁Clip 1
▁concours 1
olar 1
▁Centr 1
outlined 1
▁observa 1
▁negotiate 1
▁Partnership 1
clock 1
roasted 1
Pourquoi 1
▁Marshall 1
▁Gerade 1
▁pachet 1
▁preliminary 1
▁tragic 1
author 1
▁Gov 1
▁comunic 1
▁coordinator 1
YA 1
▁Steam 1
▁Nag 1
▁Kara 1
▁Gang 1
aurez 1
▁horrible 1
▁Luxury 1
▁encouragement 1
▁conceptual 1
▁constituent 1
nvelop 1
ucc 1
▁conçu 1
pfel 1
special 1
▁Growth 1
cada 1
▁oamenilor 1
▁vendredi 1
▁coupe 1
▁Danke 1
reflects 1
▁girlfriend 1
▁diffuse 1
HER 1
storing 1
ailing 1
▁Desi 1
stitution 1
▁adun 1
▁Partie 1
▁tissues 1
▁discovering 1
Jacques 1
lungs 1
▁Handy 1
centric 1
slav 1
▁sights 1
▁Category 1
▁Einrichtung 1
▁Robinson 1
▁Terra 1
▁creep 1
▁Lob 1
001 1
kop 1
Emb 1
▁forgive 1
▁icons 1
electric 1
▁faucet 1
▁invisible 1
sprach 1
▁beachten 1
rahm 1
▁Teacher 1
Fab 1
▁joue 1
▁Popular 1
▁Februar 1
sound 1
▁(0 1
▁Compare 1
▁pads 1
270 1
ousse 1
▁UAE 1
izări 1
▁bonuses 1
▁switches 1
▁Brothers 1
▁environmentally 1
vista 1
▁intentions 1
▁Terri 1
▁diabet 1
▁prese 1
▁parcurs 1
Warum 1
▁credentials 1
▁PLA 1
▁instruct 1
▁benefic 1
write 1
▁poids 1
▁Anspruch 1
▁avocado 1
▁inevitable 1
▁poorly 1
karte 1
▁Publishing 1
odată 1
▁scientifique 1
▁lăsa 1
▁secol 1
▁nevertheless 1
SAT 1
280 1
▁prevederi 1
▁chrome 1
institut 1
richtigen 1
▁grief 1
▁penalties 1
▁Bayern 1
▁caramel 1
Now 1
Stiftung 1
country 1
dication 1
▁Chor 1
▁rămâne 1
▁TOP 1
▁complète 1
▁Marian 1
▁Avant 1
▁Shower 1
treu 1
▁chop 1
▁comfortably 1
▁autism 1
▁Sind 1
▁(20 1
▁Cinema 1
compania 1
▁Lex 1
▁Sofa 1
dru 1
▁verification 1
▁Immer 1
lomb 1
meric 1
▁slower 1
▁propag 1
Inter 1
selling 1
▁Bright 1
condition 1
PDF 1
oyez 1
▁Fried 1
▁Nazi 1
▁Buffalo 1
▁Sue 1
▁Rhein 1
▁Klaus 1
▁indiqu 1
echte 1
▁frecvent 1
▁conveniently 1
▁Moi 1
▁greenhouse 1
▁rédui 1
▁lengthy 1
verband 1
inţă 1
▁rigorous 1
▁Finish 1
▁FBI 1
cultura 1
▁compartment 1
▁pretend 1
▁assembled 1
▁Nie 1
fession 1
▁£2 1
algré 1
▁anterior 1
▁Wissenschaft 1
▁Harbor 1
lix 1
=" 1
▁breathtaking 1
▁Stern 1
▁Internetseite 1
▁locker 1
▁feather 1
Serv 1
▁snake 1
▁Border 1
▁undergo 1
▁petrol 1
▁dealership 1
▁commander 1
▁Monate 1
▁Guardian 1
▁Todd 1
Ann 1
ibilité 1
▁Quarter 1
▁portray 1
▁Tai 1
▁strikes 1
illage 1
▁IRS 1
▁lupta 1
▁Sper 1
PRO 1
▁Export 1
▁crypto 1
▁barbecue 1
▁portions 1
▁explicit 1
▁angenehm 1
▁marathon 1
▁apartament 1
▁Eva 1
plate 1
viel 1
FIN 1
dependent 1
▁cercet 1
▁midnight 1
copie 1
▁companii 1
▁tenu 1
1/2 1
2.4 1
abri 1
▁warn 1
▁luggage 1
numarul 1
▁contour 1
▁Ghost 1
Angaben 1
▁unemployment 1
▁rău 1
▁dispatch 1
investissement 1
▁passt 1
▁Germania 1
▁webpage 1
▁reservations 1
▁Kai 1
▁Cav 1
▁Patient 1
ер 1
▁Belle 1
▁Nashville 1
▁Talent 1
ouvrage 1
▁bekommt 1
USA 1
CES 1
▁Peru 1
▁erkennen 1
prinde 1
▁constitution 1
itatile 1
bah 1
▁avail 1
▁disponibile 1
hér 1
ол 1
▁startups 1
▁carton 1
▁Newsletter 1
éti 1
▁investigating 1
itul 1
touch 1
Sport 1
AME 1
MIN 1
metry 1
icy 1
▁Luna 1
▁asthma 1
▁conduc 1
▁Ari 1
trust 1
▁defines 1
▁Blend 1
azo 1
▁sweep 1
lope 1
ţinut 1
WD 1
▁appetite 1
▁Seed 1
Friend 1
▁repet 1
▁throat 1
philosoph 1
▁connaître 1
▁Counter 1
▁Anforderungen 1
▁Polit 1
▁Weather 1
bow 1
▁recreation 1
▁culinary 1
▁plage 1
▁Cruz 1
▁equip 1
▁Recent 1
LED 1
▁steak 1
▁belly 1
photo 1
▁lakes 1
▁intact 1
▁spiral 1
▁Billy 1
▁Understanding 1
▁Lay 1
▁roster 1
▁admire 1
▁android 1
▁technician 1
gène 1
motiv 1
▁Boat 1
▁genießen 1
▁Geschmack 1
▁heroes 1
▁1800 1
numeroase 1
▁anschließend 1
▁Spur 1
▁clarify 1
▁warmer 1
▁Ranch 1
▁simti 1
Thank 1
▁freight 1
▁administrators 1
Reg 1
Această 1
▁legume 1
▁utilizare 1
CON 1
urgi 1
▁Gesicht 1
▁counselor 1
▁mondiale 1
helm 1
▁Promo 1
▁Schweiz 1
Ich 1
▁intalni 1
▁Bloom 1
▁Score 1
▁Fruit 1
▁constraints 1
▁farmer 1
▁précise 1
evaluating 1
▁Period 1
byte 1
wah 1
Mac 1
iron 1
′ 1
▁tehnic 1
▁legat 1
▁Pilot 1
▁Carpet 1
TEN 1
▁shareholders 1
vină 1
▁parole 1
ătă 1
bbing 1
▁switched 1
▁Petro 1
▁Vertrags 1
cham 1
wang 1
▁Bean 1
minister 1
▁Wu 1
▁Olympics 1
tipul 1
▁Citi 1
▁Fold 1
▁Partei 1
▁centrale 1
île 1
pflicht 1
heli 1
▁erwartet 1
▁oferta 1
▁NHS 1
annon 1
▁Rud 1
▁Stuttgart 1
▁rămas 1
▁eliminated 1
▁hiding 1
▁cadeau 1
▁mock 1
▁elder 1
▁Liz 1
aji 1
▁endlich 1
sufficient 1
▁zusätzliche 1
scient 1
▁Adjust 1
▁incentive 1
▁Papa 1
▁Pharma 1
▁conflicts 1
zählen 1
▁chien 1
KB 1
ultimi 1
▁Jul 1
▁Male 1
▁viewer 1
▁Sector 1
▁REAL 1
▁arbitr 1
resistant 1
▁Bristol 1
▁shy 1
SW 1
▁Kirk 1
centrul 1
▁Venezuela 1
▁communicating 1
▁Chemical 1
▁surprises 1
▁Jamie 1
▁Heavy 1
▁turnover 1
▁étudiants 1
welcher 1
▁preturi 1
▁Mono 1
▁paddle 1
▁accountability 1
OUS 1
▁marketers 1
fection 1
▁Outside 1
▁Jefferson 1
oaie 1
tenue 1
HU 1
Très 1
valoarea 1
103 1
▁Privacy 1
▁Leistungen 1
(3) 1
▁études 1
sko 1
drum 1
▁lamb 1
▁nicio 1
▁NATO 1
▁Freitag 1
▁precedent 1
▁partenaires 1
▁companiei 1
▁Plaza 1
▁disruption 1
▁violations 1
▁Reference 1
▁habitants 1
▁compost 1
▁citoyen 1
▁Historical 1
vollen 1
▁Eck 1
▁lumii 1
▁reusit 1
genic 1
Why 1
ASE 1
▁athlete 1
▁Spitze 1
▁schimbat 1
▁anonymous 1
jedes 1
exclu 1
factor 1
▁Dezember 1
▁scientist 1
▁likelihood 1
▁Rhode 1
▁Balance 1
istoria 1
▁Neil 1
▁bush 1
▁Ergebnisse 1
▁Sinn 1
▁spezielle 1
▁jucat 1
▁spite 1
▁Ultimate 1
▁fructe 1
▁asleep 1
▁Goal 1
▁PAR 1
▁rows 1
▁Fol 1
▁durata 1
▁traditionnel 1
▁tema 1
▁crédit 1
smallest 1
▁amino 1
▁elephant 1
▁tubes 1
▁Verwendung 1
▁Excellence 1
▁utilities 1
frau 1
▁poze 1
août 1
ango 1
give 1
▁appelé 1
▁yeast 1
▁enrollment 1
organiz 1
▁asociat 1
▁cattle 1
▁Solution 1
evoke 1
▁Hampshire 1
▁yeah 1
▁Argentina 1
▁abnormal 1
▁Heights 1
▁Mitchell 1
▁Quad 1
▁textures 1
▁coalition 1
▁dataset 1
World 1
ständ 1
▁groove 1
▁emotionally 1
▁preciz 1
kte 1
berechtigt 1
▁1971 1
grandes 1
▁Broadway 1
▁comunicat 1
nui 1
GER 1
pick 1
inscrit 1
▁Gross 1
▁McDonald 1
▁Zero 1
▁Halb 1
▁caractère 1
▁doctrine 1
▁Sinne 1
MLS 1
▁réel 1
▁Ful 1
limiting 1
▁Gan 1
▁exclude 1
imba 1
rolul 1
▁veggies 1
▁fasci 1
▁oval 1
▁contacter 1
▁linking 1
▁knit 1
▁enroll 1
▁dédié 1
▁renting 1
▁genera 1
citing 1
▁bend 1
guin 1
▁caregiver 1
▁könnt 1
▁Scripture 1
▁Mic 1
▁Denmark 1
▁qualifying 1
▁costumes 1
▁dwelling 1
▁recrut 1
▁bedding 1
gesprochen 1
▁editors 1
/12 1
▁cumparat 1
fiction 1
▁spinal 1
▁pathway 1
▁vârst 1
mba 1
▁enthusiastic 1
▁Watt 1
symptom 1
▁pup 1
▁glorious 1
▁fața 1
▁prohibited 1
vergleich 1
▁suspected 1
▁Railway 1
▁Aujourd 1
▁Patients 1
▁séance 1
▁contraire 1
▁cuvânt 1
▁trotzdem 1
émission 1
▁bore 1
▁safeguard 1
▁galleries 1
cron 1
▁Rica 1
fläche 1
▁Slow 1
▁vara 1
▁Swan 1
▁compounds 1
▁Slo 1
▁accommodations 1
▁Putin 1
▁undertaken 1
▁prépar 1
▁gandi 1
sediul 1
▁Nathan 1
▁fountain 1
▁mère 1
fatty 1
▁concentrated 1
richtung 1
▁appropriately 1
107 1
▁shark 1
▁Topic 1
▁Ausstellung 1
▁SUA 1
SER 1
▁Nicole 1
▁utilisateurs 1
▁Brazilian 1
▁continut 1
▁sanatate 1
faudra 1
nahm 1
▁Specific 1
aiba 1
cepând 1
▁Beer 1
roni 1
kay 1
▁gravity 1
▁verfügt 1
7:30 1
▁Players 1
▁Industries 1
punkte 1
▁yacht 1
-04 1
onné 1
▁Cards 1
▁fete 1
breaking 1
baum 1
nada 1
▁geplant 1
genuinely 1
talk 1
▁disadvantage 1
▁shutter 1
virus 1
▁cricket 1
▁comenzi 1
hier 1
▁aufzu 1
▁Rez 1
▁conclusions 1
▁Wang 1
Darüber 1
▁CSS 1
CW 1
▁Chr 1
▁traded 1
▁Schon 1
mped 1
▁alloy 1
AVE 1
▁imagery 1
▁resurse 1
▁Thunder 1
▁schimbare 1
▁Youtube 1
▁Monster 1
phil 1
▁bébé 1
Creating 1
ănă 1
▁Staat 1
adică 1
▁boyfriend 1
▁Winner 1
▁disputes 1
▁lush 1
▁CMS 1
▁locaux 1
▁Verfahren 1
▁Café 1
▁Vorstand 1
▁lucrat 1
▁Root 1
▁decis 1
▁Shadow 1
▁countryside 1
▁analiza 1
obos 1
opera 1
actu 1
▁Songs 1
reifen 1
▁hilft 1
region 1
▁categoria 1
capturing 1
▁1967 1
▁optimized 1
▁Dim 1
▁adapté 1
zeichnet 1
▁strada 1
fulness 1
▁technically 1
▁marker 1
▁vizita 1
▁imperative 1
▁pensé 1
▁drilling 1
ISA 1
▁Massage 1
▁Terry 1
▁pourtant 1
▁declaration 1
▁instructors 1
Eventually 1
▁banned 1
MAT 1
▁medici 1
▁Warm 1
▁trec 1
▁ecran 1
▁goat 1
▁manipulation 1
▁mayor 1
▁unterwegs 1
▁journals 1
▁hedge 1
Merc 1
▁joueurs 1
▁Religion 1
▁Mountains 1
▁renewed 1
▁Limit 1
ikea 1
▁utiliza 1
sogenannte 1
0.2 1
▁Organ 1
▁Shakespeare 1
▁Maintenance 1
▁Wärme 1
▁Northwest 1
▁numit 1
▁mica 1
turm 1
▁motivate 1
▁Staats 1
optimum 1
▁sortir 1
▁Asset 1
▁hervorragend 1
▁commentary 1
▁actuellement 1
NER 1
NL 1
ritt 1
▁Wirtschafts 1
träger 1
▁Versand 1
▁nostri 1
▁enorm 1
▁whale 1
▁Aufgabe 1
▁unfair 1
▁Cord 1
incorporating 1
luck 1
Afrique 1
▁coated 1
▁india 1
▁temporarily 1
▁ciuda 1
▁coral 1
▁wirkt 1
▁folding 1
wichtigsten 1
impacted 1
▁wählen 1
▁differentiate 1
▁froid 1
▁hug 1
▁construi 1
▁membru 1
▁masculin 1
partisan 1
▁schimba 1
▁economies 1
▁Abraham 1
wesen 1
enia 1
▁answering 1
▁activități 1
▁mémoire 1
▁versucht 1
ember 1
▁instala 1
▁eligibility 1
▁enjoyment 1
▁Arme 1
although 1
▁encompass 1
▁zufrieden 1
Script 1
KG 1
▁adhesive 1
▁Verkehrs 1
▁monitored 1
▁Conservation 1
hav 1
▁Above 1
▁Former 1
▁Certain 1
saving 1
▁Pun 1
▁awkward 1
▁Pretty 1
▁scanning 1
layer 1
motor 1
▁beginnt 1
▁affiliated 1
▁archives 1
▁sunshine 1
kha 1
▁investigated 1
▁fantas 1
▁united 1
allegedly 1
▁Eugen 1
▁proprie 1
uca 1
DES 1
ştii 1
▁Running 1
lbstverständlich 1
index 1
▁studiu 1
URE 1
gültig 1
▁lundi 1
▁Zucker 1
▁positively 1
folgenden 1
anță 1
▁clan 1
▁literacy 1
▁ober 1
John 1
greg 1
▁titlu 1
▁ţări 1
Bra 1
▁Evans 1
modern 1
▁hauteur 1
refers 1
▁plasma 1
▁optic 1
▁shampoo 1
▁cheek 1
opted 1
▁persönlich 1
▁1945 1
ICI 1
biotic 1
▁Beruf 1
▁trez 1
▁diploma 1
nahmen 1
▁curl 1
▁agricole 1
▁recomand 1
▁pediatric 1
Fiecare 1
Anlage 1
weiß 1
elecommunication 1
hog 1
▁Stamp 1
▁Tipp 1
▁kindness 1
▁Marina 1
▁Gleich 1
▁grij 1
▁desperate 1
▁recordings 1
▁neglect 1
▁inherent 1
▁Rezept 1
▁soins 1
▁brut 1
▁revolutionary 1
▁liberté 1
cours 1
▁Similar 1
▁cheveux 1
▁ieftin 1
▁promovare 1
▁grains 1
ти 1
▁fonctionnement 1
▁Coming 1
▁analytical 1
▁simplify 1
▁chambres 1
▁fifty 1
jour 1
▁(17 1
cărui 1
▁harmony 1
grin 1
▁drunk 1
260 1
3-5 1
▁articole 1
▁flooding 1
halle 1
▁defects 1
▁rifle 1
▁Boc 1
▁Athletic 1
▁acordat 1
AIR 1
▁entwickeln 1
▁Advance 1
▁Heil 1
Stainless 1
▁Psychology 1
▁omul 1
▁Arbeiten 1
▁rabbit 1
▁méta 1
ismul 1
▁Herausforderung 1
▁Euch 1
geschichte 1
▁Milk 1
▁pregăt 1
▁Standort 1
Val 1
▁Ronald 1
▁Werbe 1
▁restrict 1
▁tablespoon 1
▁Amendment 1
▁Johnny 1
▁lively 1
ORD 1
▁mulţi 1
èrent 1
Every 1
eignet 1
GD 1
▁Ghana 1
▁wealthy 1
▁advocates 1
▁Campaign 1
▁posters 1
flug 1
▁métier 1
kir 1
bond 1
datorita 1
▁Hochzeit 1
▁effectué 1
▁angles 1
▁Electrical 1
▁Administrator 1
▁spur 1
▁größere 1
woke 1
▁gewinnen 1
▁ajută 1
▁ventilation 1
▁viaţa 1
▁Dinner 1
respond 1
▁OEM 1
▁affair 1
▁öffentlich 1
ENS 1
▁Cent 1
▁făc 1
▁Doppel 1
▁fericit 1
▁coordon 1
geht 1
▁perfekte 1
▁sportive 1
▁proiectul 1
▁deadly 1
Geschäft 1
▁inspirational 1
+1 1
▁pearl 1
▁scrub 1
▁scheint 1
poo 1
▁Pier 1
▁commented 1
lute 1
▁cancelled 1
Win 1
▁payroll 1
▁varsta 1
stuffed 1
▁beads 1
▁poems 1
pokesman 1
▁checklist 1
▁Mich 1
GEN 1
▁Lau 1
▁stie 1
▁Lovely 1
▁Anschluss 1
▁personaj 1
▁ausgestattet 1
▁beginners 1
▁noon 1
▁celule 1
Trans 1
boot 1
▁drumul 1
gruppen 1
étend 1
▁risques 1
acclaimed 1
▁celelalte 1
▁condiţii 1
▁skiing 1
▁optimale 1
technology 1
▁renew 1
Cloud 1
▁damaging 1
GT 1
▁Reform 1
vedem 1
▁indicat 1
▁Maker 1
▁lichid 1
3.1 1
păt 1
lumina 1
▁Situ 1
▁Archives 1
▁allergies 1
▁Cameron 1
▁Immun 1
wissenschaftlich 1
▁supplémentaire 1
▁puterea 1
Lab 1
inspired 1
▁shrink 1
▁voit 1
▁chopped 1
▁Franz 1
oku 1
▁suppress 1
▁impress 1
▁Liga 1
▁Eight 1
720 1
▁securely 1
KU 1
modell 1
Ensure 1
größte 1
▁réuni 1
▁Internal 1
▁Punkte 1
▁replicate 1
▁spreadsheet 1
▁Hindu 1
▁Cham 1
nati 1
imply 1
funded 1
▁charitable 1
▁imagined 1
hausen 1
Keeping 1
▁attitudes 1
esque 1
▁Tennis 1
Jeremy 1
▁majeur 1
▁stii 1
▁herbal 1
▁cauta 1
▁voluntary 1
wohl 1
▁ideea 1
▁WW 1
▁erneut 1
größten 1
Grâce 1
▁Köln 1
▁mobilier 1
▁fool 1
▁Calcul 1
attaque 1
▁digestive 1
performance 1
▁homeowner 1
▁hunger 1
2.3 1
▁Sort 1
▁Dennis 1
▁certificat 1
▁Canal 1
▁Yesterday 1
▁sausage 1
▁perdu 1
ösen 1
▁preserved 1
▁trendy 1
▁iubire 1
▁grandfather 1
▁shoppers 1
▁verschieden 1
▁gagner 1
▁lucra 1
metru 1
buz 1
▁flourish 1
affin 1
▁Pflanzen 1
agh 1
▁Gill 1
▁Kä 1
▁Wege 1
▁Liberal 1
▁Glasgow 1
Objekt 1
▁Huawei 1
appropri 1
▁genius 1
▁brokers 1
▁themed 1
▁barre 1
1.7 1
▁Electro 1
▁umbrella 1
▁advisory 1
▁comport 1
▁neuer 1
▁Wick 1
wak 1
▁Woman 1
▁lesser 1
▁replied 1
▁représente 1
▁thé 1
Deutsch 1
Cat 1
▁équipes 1
▁spider 1
▁Gaming 1
▁Liste 1
▁affection 1
lipsa 1
▁Spider 1
▁Julia 1
anlagen 1
Kon 1
nței 1
▁Verwaltung 1
▁raspuns 1
samt 1
▁creștere 1
▁decorate 1
▁Chain 1
ów 1
0-0 1
▁Cran 1
▁streak 1
ор 1
▁căuta 1
wende 1
▁haine 1
▁landscaping 1
▁historian 1
▁grandchildren 1
▁crawl 1
▁Cub 1
▁nécessaires 1
▁swift 1
▁calculation 1
▁acteurs 1
VT 1
▁Hristos 1
▁slices 1
See 1
▁Bran 1
Symbol 1
▁allowance 1
▁Effective 1
▁Wünsche 1
▁shiny 1
▁professionalism 1
/6 1
▁terrasse 1
▁researcher 1
▁fragile 1
▁greeting 1
freien 1
▁valuation 1
▁incur 1
▁Zwischen 1
▁comfy 1
▁méthode 1
▁Pirate 1
▁Moto 1
(6) 1
▁devin 1
▁civic 1
usage 1
▁istorie 1
▁piste 1
▁Rug 1
pä 1
▁matur 1
CAS 1
TIC 1
▁Reduce 1
▁commemorat 1
▁cease 1
unterschiedliche 1
▁cinnamon 1
▁Font 1
▁justify 1
deteriorat 1
▁Schön 1
plain 1
frist 1
▁helmet 1
▁statute 1
accept 1
▁1,5 1
▁recon 1
▁Möbel 1
▁idées 1
automat 1
Team 1
▁performers 1
▁microphone 1
impotriva 1
▁pillows 1
▁accountable 1
▁strings 1
hydrate 1
▁Yan 1
starea 1
▁présenté 1
▁extensively 1
äst 1
▁correlation 1
bespoke 1
▁creste 1
▁Armenia 1
nose 1
▁strengthening 1
▁Horizon 1
▁obesity 1
seasoned 1
▁screenshot 1
girl 1
▁hardest 1
▁weakness 1
effectuer 1
▁Florence 1
▁Europene 1
triggered 1
Apparently 1
▁diagnose 1
rushed 1
▁trotz 1
▁spécial 1
▁lumi 1
7:00 1
▁publicat 1
ос 1
▁hue 1
▁termination 1
▁Nam 1
Well 1
▁Extract 1
atiile 1
▁vivid 1
hrs 1
▁povesti 1
stehenden 1
▁informieren 1
employed 1
▁armor 1
▁Columbus 1
Registr 1
▁Kamera 1
▁ugly 1
outil 1
▁evenly 1
lungul 1
koch 1
▁Dig 1
purely 1
▁Surf 1
rilla 1
▁Watson 1
trug 1
figuring 1
▁competitor 1
▁humid 1
▁Lawyer 1
Added 1
▁salva 1
▁drainage 1
Featuring 1
▁Pel 1
▁acasa 1
▁expectation 1
gibt 1
▁marginal 1
ceni 1
▁européen 1
clav 1
▁Shot 1
commun 1
▁Calendar 1
▁trek 1
rechtliche 1
▁Perry 1
▁surge 1
geschäft 1
paced 1
depend 1
▁Sache 1
▁Example 1
▁lider 1
▁nochmal 1
▁Present 1
KW 1
prompted 1
logique 1
Université 1
lith 1
▁Gefahr 1
▁Acid 1
objets 1
▁societies 1
▁distraction 1
▁puissance 1
▁alleviat 1
▁Capitol 1
▁Heim 1
judicial 1
▁nowadays 1
▁Hammer 1
▁metallic 1
▁distr 1
▁dispos 1
profile 1
▁Nicolas 1
▁presa 1
augh 1
schuss 1
▁Diana 1
4-5 1
▁Chapel 1
▁zahar 1
âmb 1
▁Tarif 1
▁devastating 1
6:00 1
▁100,000 1
NIC 1
▁Lucas 1
▁bequem 1
▁Motion 1
7,000 1
▁malware 1
▁avenue 1
▁manger 1
▁Queensland 1
▁Papier 1
▁Increase 1
▁implies 1
▁äußer 1
▁Meine 1
Reuters 1
▁Belt 1
Educat 1
▁Aktion 1
schläge 1
▁înregistrat 1
▁Ortho 1
▁bulbs 1
kap 1
▁peinture 1
▁Lounge 1
▁Tampa 1
ifiziert 1
kinder 1
▁comparativ 1
häuser 1
incarn 1
▁amazon 1
▁Southeast 1
▁economical 1
▁broth 1
▁Secure 1
damals 1
▁Elementary 1
▁Wildlife 1
▁Jewel 1
▁protocols 1
▁zbor 1
▁enthusiasts 1
▁Mirror 1
▁soak 1
▁Sad 1
▁dishwasher 1
▁vollständig 1
▁Vermont 1
▁caut 1
▁fournisseur 1
▁Concrete 1
▁Instant 1
▁reveni 1
▁Surface 1
zumindest 1
▁feast 1
▁stretching 1
ERA 1
▁Scholarship 1
▁vineyard 1
▁régulièrement 1
▁patches 1
▁Gamb 1
▁Vereins 1
ège 1
▁constitutional 1
erreur 1
▁Colombia 1
UF 1
aider 1
cision 1
▁publishers 1
▁prelua 1
▁keiner 1
▁amid 1
▁quantitative 1
▁decay 1
▁distinguished 1
▁Gründe 1
▁statului 1
CAT 1
allow 1
▁mathematical 1
▁tragedy 1
▁heels 1
opia 1
▁merger 1
dispositif 1
▁pneu 1
elte 1
▁Introduction 1
▁biscuit 1
▁leftover 1
▁tester 1
▁Terre 1
▁Oui 1
▁rar 1
▁beverages 1
▁parenting 1
1-0 1
▁Barry 1
▁Lynn 1
▁Tyler 1
▁fotbal 1
dron 1
▁donor 1
▁drape 1
▁positioning 1
▁Tang 1
▁overwhelmed 1
▁perte 1
▁blender 1
TG 1
GHz 1
▁administrat 1
▁glaube 1
Char 1
impression 1
proving 1
▁Inner 1
root 1
▁Gedanken 1
▁underway 1
coat 1
▁thereof 1
rius 1
▁intermediate 1
gmail 1
114 1
▁interfere 1
▁Found 1
LF 1
▁equality 1
▁concurrent 1
akh 1
▁touching 1
▁curiosity 1
▁rendering 1
▁1964 1
sorge 1
ARC 1
▁Desktop 1
▁Tak 1
filtration 1
▁gates 1
Sehr 1
▁spatiu 1
▁Leg 1
▁aviation 1
wandel 1
▁Shar 1
▁Volks 1
maz 1
governmental 1
euros 1
avantage 1
sitzt 1
IER 1
▁Theory 1
Cependant 1
▁Teachers 1
anspruch 1
▁afecta 1
enko 1
▁breeding 1
▁Peak 1
▁găsit 1
▁măsuri 1
edia 1
biz 1
zum 1
▁schwierig 1
Sense 1
▁Jump 1
▁cocktails 1
abhängig 1
realised 1
▁programul 1
▁prévu 1
▁twitter 1
Union 1
▁Marathon 1
▁Christianity 1
▁Alberta 1
einheit 1
▁wellbeing 1
phen 1
▁Charleston 1
▁uncover 1
▁humaine 1
▁bleeding 1
▁manipul 1
▁humidity 1
▁Puis 1
▁aktuell 1
▁Nissan 1
▁Eisen 1
treiben 1
cios 1
ikh 1
acquiring 1
▁Wallpaper 1
▁rond 1
▁Doug 1
sourcing 1
▁1900 1
▁buni 1
vest 1
▁Bangladesh 1
Home 1
▁wrinkle 1
rado 1
▁Pain 1
▁herzlich 1
MRI 1
UG 1
▁Desk 1
▁remarc 1
▁sodium 1
▁Jede 1
▁réelle 1
▁Polar 1
▁activists 1
lasted 1
Some 1
ISE 1
▁peine 1
▁crude 1
Maur 1
▁forcing 1
▁politici 1
▁condiții 1
▁Saving 1
▁descoperi 1
avenir 1
Akt 1
▁vocabulary 1
▁pont 1
West 1
lenk 1
▁Verbraucher 1
affects 1
▁Flower 1
▁Nebraska 1
▁assortment 1
hock 1
▁discounted 1
▁Sensor 1
Lie 1
▁Volkswagen 1
isseur 1
indice 1
▁scanner 1
fashioned 1
▁postal 1
ouvrir 1
▁seminars 1
ioase 1
▁Stanley 1
Various 1
essentiel 1
▁administered 1
▁concession 1
▁mould 1
▁strongest 1
Erlebnis 1
▁ehemalige 1
▁Tale 1
▁Buyer 1
ück 1
▁Kommentar 1
▁Schrift 1
Design 1
▁stirring 1
▁towels 1
▁$30 1
sprache 1
▁Regierung 1
▁nachhaltig 1
▁électronique 1
▁Andrei 1
because 1
informatique 1
IGHT 1
stepping 1
▁gris 1
vious 1
▁upside 1
▁Examples 1
IU 1
▁princess 1
spielen 1
legung 1
▁reflecting 1
▁Processing 1
▁jungle 1
▁insects 1
▁Sibiu 1
160 1
▁interessante 1
▁multimedia 1
essel 1
/18 1
nière 1
ministru 1
▁implants 1
▁Settings 1
▁invaluable 1
stains 1
onym 1
▁searched 1
▁disappointment 1
▁Iranian 1
▁questionnaire 1
Founder 1
▁Bericht 1
▁youngest 1
▁Automatic 1
▁plecat 1
geber 1
soweit 1
▁unfold 1
▁befinden 1
▁susţin 1
▁Mack 1
▁dificil 1
enseigne 1
▁vitamine 1
▁Memory 1
ripping 1
drin 1
3.2 1
▁verstehen 1
▁scaun 1
▁procédure 1
▁molecules 1
▁Anzahl 1
▁yogurt 1
▁Dominic 1
▁shocked 1
▁zilei 1
▁Heiz 1
▁Educational 1
BN 1
analyzing 1
hair 1
spiegel 1
▁illusion 1
BG 1
deductible 1
▁adj 1
▁accessory 1
▁Draw 1
▁airlines 1
▁satisfai 1
▁architects 1
istische 1
▁Healthy 1
großer 1
▁comunicare 1
▁Meyer 1
▁reproduction 1
▁Manufacturing 1
immobilier 1
▁Unterschied 1
▁cumpara 1
▁duplicate 1
▁(16 1
▁detector 1
▁observat 1
▁1965 1
▁Fantasy 1
▁brauchen 1
▁Participants 1
▁décide 1
▁kicke 1
▁SSL 1
360 1
Anim 1
▁cupcake 1
▁Lamb 1
▁Sä 1
ntă 1
▁Pig 1
1,000 1
nhof 1
▁discret 1
▁deloc 1
▁Bücher 1
chor 1
course 1
▁cough 1
▁erstellt 1
▁Than 1
stätte 1
▁exceptionally 1
▁semnal 1
▁Interessen 1
ле 1
xx 1
▁Veterans 1
▁Kreuz 1
▁Nachricht 1
treated 1
▁tide 1
▁nonetheless 1
▁Subject 1
▁Stau 1
▁stickers 1
Alp 1
▁flagship 1
▁trimite 1
▁polyester 1
▁locui 1
▁chili 1
▁Browser 1
sieg 1
▁Arabic 1
blich 1
▁wunderbar 1
▁furnishings 1
rtie 1
8.5 1
▁Sponsor 1
▁glitter 1
▁piaț 1
▁interviewed 1
▁Statistics 1
▁cerc 1
augmentation 1
▁Navi 1
▁Begriff 1
▁știu 1
▁unabhängig 1
▁könnten 1
▁travaille 1
▁companie 1
▁Scientific 1
▁Outlook 1
▁fairy 1
zam 1
bak 1
▁Traffic 1
gerät 1
▁freezing 1
▁broadband 1
110 1
▁revenu 1
listed 1
▁Rico 1
Laure 1
ATA 1
▁participer 1
▁sponsorship 1
▁distress 1
▁Brisbane 1
schönen 1
▁fizice 1
▁Political 1
uhr 1
▁procedura 1
▁hervor 1
melted 1
▁Emp 1
▁Ernährung 1
▁Pendant 1
▁recipients 1
Claude 1
▁regimen 1
expo 1
adevăr 1
▁critically 1
▁grabbe 1
▁Kann 1
▁directeur 1
gator 1
problem 1
scribe 1
▁exig 1
Tri 1
▁aqua 1
appréci 1
▁viaţă 1
▁dominate 1
disc 1
▁conseiller 1
▁shuttle 1
▁Status 1
▁ausreichend 1
▁spät 1
▁remainder 1
wett 1
schlossen 1
PAC 1
▁suprafata 1
5.000 1
supplying 1
▁uniquely 1
▁retard 1
▁Bang 1
ieuse 1
▁Ted 1
▁ermöglichen 1
▁builders 1
▁proximité 1
▁unforgettable 1
256 1
fähigkeit 1
▁procurement 1
▁Gewicht 1
▁potentiel 1
▁topping 1
▁canada 1
▁Destin 1
▁Knowing 1
▁retained 1
▁zinc 1
▁worrying 1
faţa 1
▁initi 1
ORI 1
▁refuz 1
bruch 1
▁impun 1
▁persoană 1
EAR 1
bedarf 1
▁Gebiet 1
▁Roof 1
▁negligence 1
security 1
▁accesorii 1
▁unclear 1
▁securitate 1
▁spotlight 1
▁speziell 1
▁mentally 1
▁preservation 1
▁Promotion 1
partnered 1
▁Hinter 1
▁punishment 1
▁grease 1
▁NW 1
▁curse 1
ckle 1
▁Hire 1
▁Whole 1
▁basse 1
▁DNS 1
flamm 1
▁scoop 1
Norm 1
▁Surgery 1
▁widget 1
connected 1
autorité 1
▁utilis 1
▁formă 1
▁clearing 1
▁jumătate 1
größe 1
▁Tief 1
épi 1
zunehmen 1
▁touchdown 1
▁scholarships 1
▁dementia 1
▁Jeder 1
▁nightmare 1
▁Raw 1
absorbed 1
lohnt 1
quent 1
interest 1
OSS 1
▁Leaf 1
▁timeless 1
DY 1
▁Remote 1
chner 1
▁Pam 1
urban 1
во 1
▁Kunde 1
▁Laptop 1
finder 1
▁Pole 1
2.8 1
finished 1
▁prophet 1
mailed 1
2-0 1
▁disciples 1
▁intriguing 1
IRA 1
petit 1
▁Membership 1
▁provincial 1
▁Prüfung 1
-50 1
▁cryptocurrency 1
▁journalism 1
▁Downtown 1
inserted 1
▁Direction 1
lipid 1
▁Sebastian 1
fordert 1
Originally 1
tipp 1
verantwortlich 1
▁wheelchair 1
▁structura 1
▁Danny 1
999 1
▁Schiff 1
formally 1
focused 1
▁Vater 1
▁Dear 1
▁reinforce 1
proprietar 1
▁Kyle 1
În 1
▁servir 1
length 1
▁showroom 1
reli 1
▁Brü 1
▁Schle 1
▁profond 1
▁Superior 1
▁lifted 1
highlighting 1
▁Connection 1
▁similarly 1
▁diferit 1
▁sweater 1
État 1
rooted 1
▁sleeves 1
де 1
▁Laboratory 1
ündig 1
▁Viking 1
▁Origin 1
▁vibr 1
199 1
▁yummy 1
STAR 1
▁repro 1
▁Kirchen 1
hopper 1
zza 1
▁vitesse 1
▁minimalist 1
▁Election 1
draw 1
▁candles 1
▁Mund 1
urged 1
▁cânt 1
Ultimately 1
▁Lift 1
loaded 1
demand 1
▁aleg 1
▁Discovery 1
▁Vienna 1
▁Kategorie 1
▁Cotton 1
▁$200 1
▁Drei 1
▁reicht 1
speicher 1
▁Immobilien 1
gefühl 1
make 1
pell 1
▁dull 1
▁arbeitet 1
retaining 1
losen 1
match 1
-60 1
▁ecological 1
▁vend 1
▁grammar 1
▁1:1 1
grilled 1
geordnet 1
▁Pav 1
▁Depot 1
▁Walking 1
teamed 1
▁torque 1
▁Venture 1
▁beginner 1
▁Monaten 1
▁Pune 1
connect 1
▁textbook 1
▁unprecedented 1
▁implied 1
▁cubic 1
enthält 1
▁Brenn 1
▁Expect 1
▁lever 1
veux 1
▁Claire 1
Acc 1
▁Typ 1
▁smoothie 1
▁Idaho 1
▁spati 1
▁bénéficier 1
▁Kle 1
▁serviciilor 1
▁prohibit 1
EAD 1
▁Turner 1
▁elibera 1
▁payday 1
▁prolong 1
▁sued 1
▁Devil 1
▁Skills 1
▁Marcel 1
▁silhouette 1
▁preț 1
▁Gö 1
▁Creator 1
fed 1
Cap 1
▁dedicate 1
0000 1
▁VAT 1
▁Firefox 1
▁therapies 1
▁screws 1
▁Province 1
▁problematic 1
▁Vid 1
▁Lost 1
▁elegance 1
▁Elegant 1
ignant 1
▁darin 1
▁anonym 1
▁vegeta 1
incoming 1
▁pills 1
governing 1
▁Haven 1
paper 1
räume 1
paw 1
▁spelling 1
ambele 1
▁reprezentat 1
▁mâ 1
wirtschaftliche 1
▁valabil 1
▁konkret 1
▁financier 1
▁irre 1
▁Silicon 1
Viv 1
▁viruses 1
▁CNN 1
▁erleben 1
gina 1
punctul 1
▁Sfânt 1
▁Manage 1
▁payable 1
▁practitioner 1
▁conférence 1
▁drought 1
▁devote 1
wertung 1
stabil 1
▁balcon 1
▁Lebensmittel 1
COL 1
▁Domnul 1
carved 1
▁preparat 1
101 1
▁specimen 1
urgeon 1
LIC 1
Plattform 1
▁ramas 1
▁copilului 1
bacter 1
körper 1
▁Kru 1
▁Employ 1
office 1
▁simmer 1
qualität 1
▁freshly 1
▁Nine 1
▁tonnes 1
boden 1
enquête 1
▁Colour 1
▁Diagram 1
▁gewählt 1
▁viitoare 1
▁reporters 1
guer 1
▁Kombination 1
▁qualitative 1
Centrul 1
avy 1
▁Eng 1
▁sufletul 1
▁germ 1
▁prevented 1
appelle 1
gins 1
▁Skype 1
conditioned 1
▁clutch 1
environ 1
3.3 1
▁webinar 1
▁forty 1
▁Medicaid 1
▁dismissed 1
▁siblings 1
▁Jaw 1
guiding 1
cigarette 1
▁Shah 1
▁Lehrer 1
▁muscular 1
spatele 1
▁réduction 1
▁fixes 1
Span 1
▁Hudson 1
development 1
▁excluded 1
Democrat 1
▁nominal 1
purpose 1
▁bored 1
espèce 1
▁(30 1
Neither 1
hänge 1
square 1
voller 1
▁pertinent 1
▁Wool 1
settling 1
fangen 1
▁Testing 1
distin 1
▁Marken 1
▁Beta 1
▁fulfilling 1
Leider 1
black 1
occupe 1
itățile 1
Pay 1
▁bandwidth 1
▁neighbourhood 1
▁Gutschein 1
degree 1
ivité 1
4.1 1
▁tätig 1
topic 1
ätz 1
these 1
▁propriété 1
▁innings 1
▁Prevention 1
▁Saw 1
▁opener 1
entwicklung 1
▁Johann 1
▁statistic 1
oids 1
▁Delaware 1
▁Isle 1
▁accompagn 1
▁Risiko 1
▁Conform 1
zeichnen 1
▁acuz 1
▁Mort 1
Fällen 1
▁blended 1
found 1
▁gestalten 1
▁Découvrez 1
▁Wett 1
▁débat 1
▁Tire 1
benz 1
Yes 1
▁pierde 1
▁niciodata 1
▁precipit 1
▁lazy 1
▁creature 1
Wettbewerb 1
▁Explo 1
wolf 1
▁conséquence 1
▁jewellery 1
▁Extension 1
▁transmitted 1
▁darker 1
▁simbol 1
kim 1
▁proteja 1
▁Copper 1
mitglied 1
▁explosive 1
▁Nicolae 1
▁intricate 1
lati 1
Mark 1
▁Porsche 1
▁Revenue 1
4.2 1
certain 1
▁Coaching 1
▁allocated 1
▁optimiz 1
▁heel 1
▁indigenous 1
▁vineri 1
▁Inspector 1
▁colleague 1
ANG 1
éducation 1
▁Geschenk 1
channel 1
▁trapped 1
BF 1
▁firing 1
▁chlor 1
▁Carlos 1
▁proxy 1
▁pinch 1
▁Pete 1
phospho 1
▁waiver 1
▁Croatia 1
▁behave 1
▁frig 1
▁Vorteil 1
▁wichtiger 1
........ 1
▁flick 1
▁Stanford 1
öse 1
▁Fernseh 1
▁vélo 1
reisen 1
residing 1
▁Taste 1
▁disappeared 1
▁Hood 1
▁fabriqu 1
▁Jake 1
Lastly 1
▁furnace 1
▁Ottawa 1
▁dictate 1
zece 1
protect 1
FU 1
Stack 1
▁teilweise 1
▁Publisher 1
▁lutte 1
202 1
psy 1
▁wünschen 1
▁pathways 1
ivitate 1
▁continuă 1
ziemlich 1
verted 1
▁sequel 1
tinct 1
vette 1
▁exceeding 1
▁Yorkshire 1
▁cleanse 1
Sadly 1
▁präsentiert 1
angled 1
tude 1
chain 1
▁Oakland 1
xia 1
▁foremost 1
▁incomplete 1
▁restriction 1
▁whatsoever 1
▁shipment 1
** 1
Aici 1
PART 1
▁grams 1
▁Folk 1
▁encryption 1
▁Alfred 1
▁Veränderung 1
▁privately 1
£ 1
▁Sonne 1
kow 1
▁CBS 1
▁Feuer 1
▁crushed 1
▁cazare 1
▁beraten 1
envoi 1
▁genannt 1
▁Lok 1
nox 1
wishing 1
▁freak 1
rasi 1
▁calculations 1
▁sprechen 1
5:00 1
▁Gam 1
▁invasion 1
ZA 1
aiming 1
▁näher 1
▁Maßnahmen 1
▁măsură 1
▁Bestellung 1
▁gown 1
▁oblige 1
länder 1
posi 1
▁Earn 1
▁dubl 1
▁sticky 1
▁litter 1
▁Salz 1
▁Matter 1
▁Driving 1
▁pursu 1
ographer 1
▁touring 1
opter 1
▁fierce 1
▁Audit 1
▁imperi 1
▁positiv 1
règles 1
▁bouton 1
▁victorie 1
▁manuel 1
▁await 1
▁transformer 1
▁cupboard 1
▁Hag 1
naj 1
▁annoncé 1
▁scolaire 1
▁étape 1
▁pirate 1
▁Rated 1
LOT 1
▁natura 1
oga 1
Read 1
idio 1
▁recession 1
veţi 1
▁blossom 1
▁lunar 1
▁inhibit 1
gemein 1
▁Historic 1
▁HTTP 1
misiune 1
▁Manda 1
▁Hurricane 1
Strat 1
▁populaire 1
▁useless 1
▁Leipzig 1
▁Krankheit 1
▁Bonne 1
▁tissu 1
▁Baum 1
▁BUT 1
▁Mondial 1
▁triangle 1
▁Tesla 1
▁pământ 1
▁aminte 1
▁vehicul 1
▁cerut 1
▁respiratory 1
▁rayon 1
▁gestaltet 1
310 1
pfl 1
▁shrimp 1
▁reconnu 1
ologique 1
▁unity 1
Speicher 1
▁Movement 1
ddling 1
OE 1
▁Resolution 1
esteem 1
▁Teen 1
▁believing 1
▁Tipps 1
jpg 1
▁obs 1
SHA 1
▁quietly 1
setting 1
▁elevator 1
phor 1
Just 1
▁legatura 1
elected 1
▁disclosed 1
quarter 1
zzy 1
▁gata 1
SAN 1
▁Cathedral 1
192 1
▁RBI 1
▁Seller 1
▁urine 1
▁Hardware 1
▁steadi 1
percussion 1
▁francez 1
▁rude 1
bod 1
cession 1
▁HTC 1
HB 1
▁descent 1
▁Painting 1
119 1
sagen 1
▁salvation 1
arro 1
0.3 1
▁Duck 1
Mit 1
да 1
▁Diesel 1
▁Medal 1
▁interim 1
▁montagne 1
▁Pixel 1
LINE 1
▁dureri 1
▁Bengal 1
Legea 1
▁Strecke 1
▁schneller 1
▁Karten 1
cion 1
▁Coco 1
troisième 1
401 1
▁sandwiches 1
▁folosind 1
▁Folgen 1
▁triumph 1
▁Hintergrund 1
▁revelation 1
ôme 1
▁Nex 1
jährigen 1
▁militant 1
▁fabricant 1
iano 1
▁formulation 1
integrating 1
▁Items 1
▁contractual 1
AIDS 1
▁pitcher 1
▁Snap 1
▁systematic 1
▁referendum 1
gau 1
administration 1
▁speci 1
ieni 1
prox 1
▁bouquet 1
▁sinnvoll 1
▁Fleisch 1
ktuell 1
▁mushrooms 1
▁Straf 1
▁cresc 1
TEM 1
▁vindec 1
▁Drama 1
chief 1
▁müsst 1
▁Warner 1
118 1
▁saptamana 1
▁animaux 1
▁Directory 1
▁entgegen 1
▁deduction 1
▁Strategic 1
▁rats 1
▁Moses 1
eko 1
strict 1
▁Ashley 1
mik 1
▁relocate 1
▁whip 1
central 1
mack 1
stufe 1
▁Metropolitan 1
▁croissance 1
▁celebrities 1
▁Geh 1
▁verifica 1
▁satisfac 1
▁Julian 1
▁remotely 1
▁Safari 1
▁Chic 1
▁clamp 1
▁Schnee 1
grown 1
▁Character 1
▁charities 1
Thankfully 1
▁țară 1
IZ 1
Vielleicht 1
▁Pon 1
gegen 1
chez 1
Black 1
▁alimentare 1
▁verloren 1
▁predictions 1
Founded 1
▁femeie 1
wahrscheinlich 1
▁squeeze 1
▁verfügbar 1
▁hygiene 1
voire 1
▁birou 1
▁initiate 1
▁Patriot 1
▁Income 1
▁marry 1
lokal 1
logic 1
▁Abstract 1
▁grundsätzlich 1
▁tariff 1
▁definitiv 1
paz 1
Result 1
1:30 1
▁Latest 1
▁Dauer 1
Med 1
gewicht 1
▁Gaza 1
▁Newton 1
Dokument 1
formular 1
ILE 1
▁surse 1
MH 1
▁Arctic 1
▁ISBN 1
▁quarterback 1
▁absurd 1
▁Zusammenhang 1
▁Module 1
mented 1
worthy 1
▁célèbre 1
▁maritime 1
▁Reed 1
▁threaten 1
▁Satz 1
▁sticking 1
▁transcript 1
▁Morgen 1
▁Förder 1
▁Gottes 1
▁Coordinator 1
LOG 1
EAN 1
▁préparation 1
▁Brass 1
Așa 1
▁Utiliz 1
framed 1
▁asphalt 1
116 1
▁historically 1
▁doamn 1
Air 1
▁economist 1
fresh 1
engine 1
▁Rücken 1
▁worthwhile 1
▁Therapie 1
▁Joshua 1
sicherheit 1
▁scena 1
ifiant 1
/20 1
fehl 1
karten 1
501 1
▁vide 1
▁miliarde 1
▁trillion 1
oudre 1
nderung 1
▁inquiries 1
▁echipe 1
▁investiga 1
▁detailing 1
VIS 1
▁geographical 1
▁authentication 1
▁Schwa 1
▁Scri 1
▁discourage 1
Pass 1
▁scattered 1
▁langsam 1
telles 1
▁ramane 1
▁inhibitor 1
▁Habit 1
▁10:00 1
▁rezultat 1
äck 1
,000. 1
▁remedies 1
▁comportament 1
namen 1
▁#3 1
enstein 1
▁relevance 1
▁présentation 1
MHz 1
EMA 1
▁palace 1
▁vizibil 1
▁griev 1
▁severely 1
expert 1
▁ravi 1
▁feasible 1
▁Wholesale 1
▁graduat 1
Kü 1
▁quotation 1
/11 1
lutter 1
▁dice 1
modal 1
ggling 1
▁considér 1
▁Insel 1
▁Database 1
icism 1
▁quarterly 1
▁formule 1
▁renouvel 1
▁Treasure 1
▁1962 1
▁republic 1
▁États 1
▁salut 1
HK 1
▁Bali 1
▁Rechnung 1
fruit 1
lays 1
LAS 1
inclin 1
▁Cré 1
▁compt 1
țiilor 1
heft 1
▁Comisi 1
▁Nurse 1
loid 1
grove 1
▁Copy 1
▁Kampf 1
izată 1
würdig 1
-2018 1
ozo 1
▁integriert 1
▁réunion 1
▁mică 1
▁Chau 1
▁allegations 1
▁shaping 1
▁transcription 1
▁Monica 1
▁torture 1
▁cooperative 1
▁invité 1
▁bamboo 1
▁Thinking 1
▁gratis 1
117 1
renz 1
▁Fußball 1
▁Gram 1
sprung 1
▁Schluss 1
▁Diploma 1
▁apparatus 1
notably 1
▁exercit 1
ământ 1
▁masses 1
▁preuve 1
great 1
▁Drink 1
islam 1
ARM 1
indre 1
DW 1
▁Flowers 1
▁pill 1
▁objectifs 1
▁Bezug 1
▁assumptions 1
▁vesti 1
route 1
▁Bangkok 1
▁seamlessly 1
config 1
▁username 1
unsure 1
▁poser 1
▁impozit 1
▁metode 1
defending 1
▁Nic 1
▁Vertrag 1
▁plăcut 1
▁Pou 1
UCH 1
▁Fein 1
reading 1
snip 1
▁Livre 1
lander 1
▁hydraulic 1
veiled 1
intr 1
▁Domnului 1
▁$0. 1
▁kilometers 1
spann 1
▁credibility 1
▁eBook 1
VERY 1
▁Charm 1
Evangeli 1
▁anderer 1
▁Entry 1
ffy 1
▁Exc 1
▁Omega 1
▁Funktionen 1
▁Gay 1
▁acht 1
colored 1
itude 1
▁accompagné 1
▁unfortunate 1
▁DIN 1
▁installment 1
▁indépendant 1
These 1
mitten 1
thank 1
▁Trek 1
üchte 1
▁cuir 1
▁turbo 1
Table 1
▁Extrem 1
▁advertisements 1
▁chaîne 1
▁corridor 1
▁râ 1
▁Opening 1
Get 1
▁storytelling 1
▁severity 1
4" 1
▁parasit 1
angebot 1
Data 1
listen 1
▁vârstă 1
▁swallow 1
TRE 1
▁daunting 1
▁Oli 1
▁definitive 1
▁rezerva 1
/15 1
▁Landschaft 1
▁Automotive 1
▁convers 1
▁thru 1
▁Township 1
▁tilt 1
▁Criminal 1
riez 1
▁Parking 1
▁humanitarian 1
▁Kilometer 1
controlled 1
▁Klick 1
support 1
handed 1
ämtliche 1
access 1
▁eleven 1
▁ferry 1
zieren 1
▁Gebrauch 1
▁vigoare 1
MON 1
fox 1
bestimmten 1
▁Gur 1
▁Mannschaft 1
▁patrol 1
▁casă 1
▁Stories 1
▁robotic 1
tiri 1
gewiesen 1
CV 1
▁parinti 1
▁Owen 1
▁Katie 1
▁Combine 1
enfalls 1
▁financière 1
▁parliament 1
▁Weekend 1
▁Sonic 1
▁fixture 1
majorité 1
▁gravel 1
realizate 1
examining 1
▁grim 1
▁stabili 1
▁Wochenende 1
▁Hebrew 1
▁Harrison 1
▁boundary 1
40,000 1
▁Ambassador 1
▁scoate 1
ffin 1
▁crème 1
▁obiecte 1
enţa 1
▁subsidiary 1
▁Franco 1
▁visuel 1
▁uitat 1
▁revisit 1
▁Camping 1
▁Divine 1
4-6 1
▁Brandon 1
ма 1
sofern 1
ntweder 1
▁Shoot 1
étais 1
SPEC 1
▁dreapta 1
▁repaired 1
pyr 1
▁warranties 1
▁représent 1
ADE 1
▁selective 1
▁Banking 1
▁ergonomic 1
...” 1
▁willingness 1
isser 1
▁confection 1
admi 1
▁Freizeit 1
▁illuminate 1
▁Repeat 1
▁Zeitpunkt 1
claimed 1
▁erhältlich 1
▁paysage 1
▁Atom 1
▁Graf 1
▁firmware 1
▁Swift 1
▁cercetare 1
▁internațional 1
▁zombie 1
▁Spread 1
ECO 1
▁Gestaltung 1
rast 1
▁perfume 1
▁roulette 1
▁distill 1
▁Produkten 1
225 1
facing 1
▁paradigm 1
▁Rah 1
▁Renault 1
willig 1
▁Vet 1
▁reprezenta 1
stoß 1
▁Weiß 1
▁Solo 1
▁Jin 1
▁Brussels 1
▁Tournament 1
▁proced 1
▁Rabbi 1
▁gameplay 1
▁ATM 1
▁firearm 1
revealing 1
schütz 1
▁Absolutely 1
▁interference 1
▁Employment 1
▁chord 1
▁oportun 1
▁frontier 1
▁Lunch 1
bread 1
▁rendered 1
5.1 1
▁motif 1
▁Schlag 1
113 1
▁Deux 1
▁surplus 1
ALS 1
▁abortion 1
▁airplane 1
▁migrants 1
kli 1
▁crochet 1
fahrer 1
▁reconstruction 1
▁difer 1
▁Conserv 1
▁NSW 1
▁regim 1
▁Except 1
▁trage 1
▁Consiliul 1
▁Bedarf 1
▁additive 1
know 1
▁sauna 1
▁mortality 1
kräftig 1
▁Own 1
nzo 1
▁villes 1
▁recette 1
▁attacking 1
beruf 1
▁integrat 1
realizarea 1
▁exemption 1
GW 1
▁Nano 1
SCH 1
▁honesty 1
▁Arriv 1
▁gland 1
▁proactive 1
▁agile 1
▁kernel 1
▁nurture 1
▁Patent 1
▁excursi 1
pulsion 1
stellte 1
ständige 1
▁Rebecca 1
▁Securities 1
mètre 1
LOW 1
▁consilier 1
▁Architekt 1
▁china 1
älfte 1
▁Combin 1
480 1
liv 1
▁peur 1
keep 1
▁Verhalten 1
▁peek 1
▁dient 1
▁prevazut 1
Emmanuel 1
▁incidence 1
▁Framework 1
dass 1
artiste 1
▁Accept 1
▁plunge 1
chauff 1
▁guilt 1
▁senator 1
▁disable 1
▁partout 1
JC 1
▁Highly 1
▁beneficii 1
fibro 1
interpreted 1
▁genauso 1
▁basil 1
▁Angst 1
rzte 1
Master 1
▁french 1
▁Duration 1
HM 1
▁Bert 1
▁1963 1
▁warrior 1
2007 1
▁recycle 1
▁fertiliz 1
▁hatch 1
ISH 1
luft 1
▁crying 1
▁activist 1
schränkt 1
▁diff 1
▁Demand 1
▁transported 1
▁Remodel 1
▁Etats 1
ANI 1
▁spéciale 1
▁Konzert 1
▁Bedürfnisse 1
▁overlooked 1
▁cutter 1
klär 1
▁Materialien 1
▁gewisse 1
bull 1
Good 1
Gig 1
Logic 1
▁Schlaf 1
▁Yankee 1
▁Batman 1
▁funcție 1
▁partenariat 1
▁Antrag 1
▁Pill 1
▁tram 1
▁Minor 1
pertaining 1
▁apropiere 1
▁Barack 1
schön 1
▁Sandy 1
kilometre 1
▁diy 1
▁1966 1
gelassen 1
▁Trial 1
▁Bauer 1
▁assumption 1
birth 1
rechnen 1
▁meci 1
▁gloss 1
▁sewer 1
▁Stimme 1
▁Fortune 1
▁Lösungen 1
▁impresi 1
schlaf 1
prüfung 1
▁instalat 1
▁picturesque 1
vait 1
8.1 1
▁călători 1
▁dix 1
▁furnished 1
▁dolari 1
▁regener 1
▁astazi 1
▁Sprach 1
delà 1
avec 1
▁Buddhist 1
▁alphabet 1
▁berichtet 1
ideally 1
▁annuel 1
▁laughing 1
▁Zustand 1
cini 1
solid 1
▁Broker 1
▁developmental 1
▁Summary 1
▁Trinity 1
▁sucre 1
▁sandal 1
PEN 1
gewinn 1
olé 1
matric 1
xton 1
werten 1
▁Dust 1
▁Journey 1
▁Rush 1
▁NCAA 1
▁allgemeine 1
▁Universe 1
▁connais 1
▁quantité 1
▁Kab 1
▁purse 1
Health 1
▁apărut 1
▁bypass 1
pronounced 1
▁magnitude 1
▁Walmart 1
ède 1
▁serum 1
▁baseline 1
STER 1
▁ONLY 1
▁individuell 1
▁Ghi 1
▁Ruby 1
▁Chal 1
▁Vier 1
5.0 1
▁fog 1
esel 1
▁Python 1
▁urmează 1
▁trustworthy 1
hört 1
▁tâche 1
Patri 1
▁grind 1
▁Raven 1
▁poursuiv 1
▁simpli 1
▁echo 1
▁Attention 1
Against 1
GET 1
▁turistic 1
▁tenure 1
▁alimentaire 1
Who 1
▁ändern 1
▁rebound 1
grenze 1
▁Fame 1
▁Kick 1
▁Detail 1
▁Push 1
production 1
▁Candidates 1
▁reușit 1
istischen 1
lassung 1
▁Hann 1
espère 1
▁vergessen 1
▁smiling 1
▁devotion 1
▁pastry 1
Add 1
▁authorization 1
▁Suisse 1
▁Berkeley 1
▁Guild 1
▁choir 1
learning 1
▁Tanz 1
mardi 1
▁rezultatele 1
▁earrings 1
▁turbine 1
▁jeudi 1
terapie 1
regain 1
SET 1
▁Hände 1
▁Globe 1
frag 1
▁Treasury 1
▁hazardous 1
▁Fahrt 1
▁fulfilled 1
▁manga 1
▁composé 1
▁ABS 1
▁preced 1
▁beauté 1
▁interessant 1
▁lieber 1
▁Kö 1
EMS 1
FER 1
▁eure 1
▁plumber 1
Love 1
▁Marcus 1
▁registry 1
▁uncle 1
▁neuf 1
▁Fläche 1
▁restaur 1
▁noticeable 1
▁riches 1
occupy 1
▁hurricane 1
▁gespeichert 1
▁Bordeaux 1
▁Maj 1
Applied 1
▁compter 1
impact 1
▁Improve 1
▁Calif 1
▁desfășur 1
▁packaged 1
180 1
devenu 1
▁Battery 1
▁objection 1
▁anual 1
▁Landscape 1
IQ 1
grès 1
▁witnesses 1
enţial 1
▁plateau 1
▁bilete 1
▁Bronze 1
▁Kiss 1
▁Serge 1
atomic 1
▁renovated 1
player 1
▁dirig 1
▁Îm 1
▁plimb 1
▁ambassador 1
▁apropiat 1
▁adaug 1
ogenic 1
kämpfe 1
▁Hillary 1
yak 1
General 1
▁Zugang 1
▁fertil 1
incat 1
assessing 1
▁Cincinnati 1
▁convincing 1
sadly 1
kunde 1
ambul 1
▁familii 1
juri 1
ionen 1
▁Wirtschaft 1
contract 1
punem 1
handlung 1
▁fournir 1
▁Ambi 1
▁Isaac 1
▁praying 1
▁Italien 1
233 1
spawn 1
▁legii 1
▁zuvor 1
▁comune 1
official 1
144 1
izeaza 1
▁Keller 1
ORE 1
122 1
incurred 1
CHA 1
▁Herzen 1
▁reasoning 1
affaire 1
ooth 1
155 1
▁invented 1
▁Comun 1
zähl 1
geliefert 1
explorer 1
nect 1
▁mercredi 1
▁volonté 1
easy 1
▁feat 1
rented 1
▁converter 1
Verhältnis 1
▁Iceland 1
▁pretul 1
▁Vorstellung 1
▁hydrogen 1
▁pouvai 1
▁dawn 1
▁Georg 1
▁cautious 1
▁Pattern 1
▁Ox 1
▁decizie 1
REC 1
▁Mortgage 1
attributed 1
floor 1
▁Wichtig 1
enseignant 1
▁civilization 1
▁dispozitie 1
▁geographic 1
▁Kun 1
LIN 1
▁auzit 1
except 1
▁superbe 1
▁installé 1
▁Peninsula 1
▁norme 1
elul 1
▁Experten 1
expression 1
Christ 1
▁Fuel 1
▁muffin 1
▁lecteur 1
▁gifted 1
▁Japon 1
▁SSD 1
▁Calgary 1
▁hooked 1
▁Joan 1
▁tangible 1
FW 1
olli 1
▁Platinum 1
▁miniature 1
▁lump 1
ologische 1
▁Istanbul 1
▁Compar 1
tropic 1
KING 1
Präsident 1
▁fotografii 1
hoped 1
▁pâte 1
▁mercy 1
▁quiz 1
demonstrating 1
▁douce 1
▁Vest 1
▁Harvey 1
▁breit 1
▁Bereits 1
▁breakthrough 1
▁masterpiece 1
▁Chester 1
▁indiqué 1
hook 1
statutory 1
▁Direkt 1
▁specs 1
Drive 1
▁survivors 1
▁jackpot 1
▁garder 1
▁Geburtstag 1
145 1
▁Clay 1
▁WHO 1
▁Ellen 1
▁bonheur 1
▁hazards 1
▁Kaiser 1
▁tightly 1
Universitatea 1
▁rinse 1
▁passant 1
▁sânge 1
▁peuple 1
jungen 1
▁inappropriate 1
▁mitigate 1
MID 1
▁telecom 1
▁plaj 1
▁presupune 1
acco 1
expressing 1
▁Symphony 1
temperatur 1
▁activităţi 1
▁amended 1
▁rehab 1
▁sportiv 1
hotel 1
branche 1
▁Noch 1
▁1961 1
release 1
blaze 1
Adv 1
Line 1
▁financiare 1
▁chauffage 1
мо 1
schuhe 1
blé 1
▁Echo 1
▁remarks 1
scriu 1
Vir 1
War 1
atifs 1
RING 1
▁Instruction 1
▁verlassen 1
▁ergänz 1
▁Emil 1
▁empire 1
▁Einkauf 1
utigen 1
▁audition 1
travelled 1
ло 1
▁infinite 1
▁Lieblings 1
▁vân 1
▁spinning 1
converting 1
▁uncertain 1
restul 1
▁colourful 1
▁accountant 1
bourg 1
▁structuri 1
▁Booking 1
intéresse 1
▁coordinated 1
▁precaution 1
▁Cheese 1
▁surfing 1
▁souffr 1
▁Menu 1
▁arthritis 1
▁headphones 1
▁upgrading 1
▁apparel 1
▁Haushalt 1
▁Personally 1
▁insane 1
▁fonduri 1
▁entier 1
▁Herbst 1
▁cyclist 1
▁filmmaker 1
▁Portuguese 1
▁nominee 1
▁Yang 1
▁slate 1
▁entièrement 1
▁Umgang 1
shifted 1
▁défaut 1
heiz 1
▁Seal 1
▁servicing 1
marketing 1
▁demandé 1
TING 1
▁modifier 1
lysis 1
▁suplimentare 1
OTHER 1
Graph 1
▁coincide 1
governed 1
▁locking 1
▁Properties 1
▁Panama 1
▁Coupe 1
songwriter 1
exhibited 1
▁semnificativ 1
▁purchaser 1
▁puff 1
Back 1
fragt 1
▁deputy 1
▁revien 1
▁Christine 1
▁Cities 1
▁Charakter 1
atteindre 1
▁fou 1
▁obligatoire 1
INA 1
etc 1
▁newborn 1
▁explicitly 1
simplest 1
▁plateforme 1
ordinate 1
displaying 1
▁messy 1
gespielt 1
▁electron 1
▁Dreh 1
▁ambient 1
340 1
▁directive 1
▁Vall 1
ookie 1
▁wasted 1
CIS 1
lude 1
rach 1
▁gasest 1
▁miros 1
transforming 1
▁Milwaukee 1
▁uncommon 1
▁tableau 1
geräte 1
ophil 1
▁Jeep 1
▁wreck 1
LAND 1
attach 1
▁Panther 1
9:30 1
▁induce 1
▁privest 1
Ident 1
▁illnesses 1
▁inhabitants 1
▁fehlen 1
obtenu 1
▁gegründet 1
ARA 1
3-2 1
▁milliards 1
▁Bü 1
▁angegeben 1
TUR 1
▁arab 1
▁Scientist 1
▁minut 1
▁beast 1
▁accidentally 1
WN 1
▁Ralph 1
hängt 1
▁Erik 1
▁différent 1
▁conformitate 1
thriving 1
▁Piece 1
plasm 1
▁erwarten 1
owski 1
prayed 1
three 1
▁soundtrack 1
guru 1
▁cracked 1
▁adh 1
▁maître 1
▁Oberfläche 1
▁crab 1
▁Foster 1
▁gemütlich 1
SIC 1
ième 1
▁Few 1
gérer 1
2006 1
cool 1
▁dispune 1
recevoir 1
▁Bak 1
▁steer 1
ICS 1
▁Brett 1
▁downside 1
▁residency 1
important 1
ubb 1
mony 1
▁leasing 1
▁Gir 1
▁Biology 1
▁Colin 1
▁complicat 1
▁regroup 1
SPA 1
▁Veranstaltungen 1
convicted 1
▁Wonderful 1
züge 1
yton 1
EMENT 1
▁bent 1
heben 1
▁Sustainable 1
▁Newcastle 1
mother 1
▁eighth 1
▁atmosfer 1
expériment 1
▁Interest 1
▁successes 1
▁preschool 1
▁Funeral 1
blast 1
▁dimensiuni 1
▁Dow 1
▁pulp 1
▁Heather 1
▁erstellen 1
locating 1
direct 1
▁tractor 1
growing 1
▁inventor 1
ASA 1
insta 1
yana 1
▁squash 1
▁Basketball 1
AMA 1
insel 1
▁Fisch 1
▁metaphor 1
TES 1
▁conduce 1
stehende 1
▁FAQ 1
▁bezeichnet 1
wendung 1
▁Commonwealth 1
▁bait 1
▁Umsetzung 1
▁Equi 1
▁validity 1
Off 1
▁produsul 1
▁sensory 1
▁Imperial 1
▁Dick 1
kampf 1
▁Arzt 1
▁Reason 1
ITS 1
URL 1
demonstrates 1
▁dépend 1
NAS 1
▁funcți 1
▁vulnerability 1
2.7 1
layered 1
escence 1
▁République 1
▁Lust 1
▁sute 1
▁autonomous 1
Biserica 1
▁Chuck 1
▁protéger 1
rrell 1
▁Schaden 1
prennent 1
maß 1
OV 1
▁Wake 1
produire 1
▁Elder 1
Max 1
▁Chemistry 1
▁gourmet 1
erri 1
ени 1
▁Gru 1
▁vorbit 1
▁precede 1
▁randomly 1
▁efecte 1
▁calatori 1
▁Poor 1
List 1
▁regula 1
▁organisé 1
Div 1
▁volunteering 1
▁horr 1
9.99 1
▁UPS 1
▁englez 1
▁Eden 1
GG 1
▁typing 1
Likewise 1
▁stabilize 1
physio 1
ми 1
▁protagonist 1
▁velvet 1
schrank 1
▁Allah 1
▁forefront 1
▁salaries 1
▁prediction 1
▁Advent 1
politik 1
▁Heimat 1
ducted 1
ASH 1
▁Mold 1
▁publi 1
▁Vil 1
▁stu 1
INTE 1
▁fave 1
▁grounded 1
▁Anything 1
vik 1
Bank 1
deserved 1
machen 1
▁rugged 1
▁Nest 1
▁profund 1
▁quantum 1
▁funcționa 1
klu 1
▁consulter 1
MED 1
▁câştig 1
▁săptămâni 1
questioned 1
▁Trop 1
▁convo 1
▁sparkling 1
▁specialise 1
▁pancake 1
habitude 1
phal 1
[...]
